node {
  name: "images"
  op: "Placeholder"
  attr {
    key: "dtype"
    value {
      type: DT_FLOAT
    }
  }
  attr {
    key: "shape"
    value {
      shape {
        dim {
          size: -1
        }
        dim {
          size: -1
        }
        dim {
          size: -1
        }
        dim {
          size: 1
        }
      }
    }
  }
}
node {
  name: "feature_extraction_block/feature_extraction_w"
  op: "Const"
  attr {
    key: "dtype"
    value {
      type: DT_FLOAT
    }
  }
  attr {
    key: "value"
    value {
      tensor {
        dtype: DT_FLOAT
        tensor_shape {
          dim {
            size: 5
          }
          dim {
            size: 5
          }
          dim {
            size: 1
          }
          dim {
            size: 56
          }
        }
        tensor_content: "\253\035|=\033\237r\275G\200\276\276\376\213\343\275\233\264\000\276\331\354\233>b\215E\276v\024>\275?\352\326<\'\037\230>\212\030\211>f\232\257=\260\352i\275\377\343j\275-+\373=Y/p=\377\251\301\276\353\341:\276K\312\313\276\301g\323=\316\327\333<\233\277%\274(9\363;\355\334\365=%+R\276\335\252x>\026q\330\276Xqt\273\001\372J\275\242\\\017=\014\343\210\275\215\013\207=V\311\n>\3753\032>$\0305\275E\363x=\245\n\032\275h\006\212>\350\300\222\274\204\037m\276\216\006\255\273\276\234\366=\324\025\232\276\005\346\231>\350B\320=\344?\222=r\002\317>@@\025=\261Sq\276\370\250\353\276n\330\201<\003]\022>\375I\251>\370_+\276\204\200\322\275\216\335M\276\330#\245=\032\227\311\275\371\2031=\275|\206>\020DQ>c\361&<c\3125>\236DD>^o\217\275\014\324G>\365\305\230\276#\307f\276\037$\371\275m\345\004>\266\377\344=\333`\225\275\223\240]>\303\261\351\275\242\343\261>\233\325\034\276*ph=\312\360\034\276\317\035T\276\366\224\"\275\214V\003\276,\034\204\276yD\033\274D\310\226>\023\346\013\274\023\270F\276\231\373+\276\244\273\207>\017\345\347\276$\352\271\275\247\'\034\276\334M$\276\222\364f\276c\276V=\025\217\340;\t\223\312\275\004\324F\276WLX<.\276&\276\360u\322\275\341\246\270\275R\320\341>\347\272\226\275\230\3014>\366p/\276\200\355\034\276\367\214J>\357k6\276\374\254\356\274\017\213N\276e\260\247=^\201\223\274BtV=Q\204G>\263\314\213>\273\225\347<\n\331\331<\311b+\276\274\t\265\276\303x7>\317\026&\276\000oH\2763R\024>V\021t\274\210_\274\275\346\223C>\220B\241\276\217\311\021>va\352>\305\227\241>\335-\025=\372\275t>Il6>}g5>\352s\221=\256\266\231>(\255\277\275E\311\263\275\244R\303\276Y\352\272<\016\234p>\036.j\275)\276\262>\356D~=\255\360\264\276(\204\000>\200\332.\276\262\006\t\276\000\252X>jv\342=\000Qm=\200N\373=\022\362(\275\302\2727>\214B)\275\365{\212\275\002\326@\276\347\300\206>\215\026\021=7Z\217\275*O\263\275\216\372\207=\224\017\250\275\374\025\014\276\311\233f>\3772\207>b\2410\276\247Pm\275\332r\020\276s=\215\2764c$=\376][>\211\301\224>\317h#\276t\0252>\036\364\211=x\024\303=\334pJ>\315F\210\276u\242\254>\332\312\026\276S!\014\276|\354\315=\032\257\257\276q\027\023\276\302\240\346\275\251=\314\275\314[%>T\312\215>k\264\225=\032be\276\277\250\324\275\272|\210=\005\2114=\202\"\204>\244\000\206=\271;\270\276\244\200\256\275\037\354\013>\177e\024>T%\265\276\003\354\340<\366\355O\276\362]#\275\203\335$\276\243\342b\276\270\311\201>\301\326V<\345\376\003\276\331\364\260\276\314\247\245=\201\nA>\335\356\027>\037\333\233\275\375Q\201\276\200v\366<D\237\364\2754\005\337\276\356eV=k\206A\276r\274\200\276)\312,\274\2516\350\275\247\326`=\346}\033=\235\013\020>}\347B\275~b\304\275{\201\243\275\337\340\023>\005Z7>S\017\272\276}\016(\276\020\010\227\275~\272\026>\317\025\216>\362\367\331>\330\031{>p\207\370\275\245\\\023\276K|\3409A\204\310>\247<?>h\022w\275\235\031\005>\243\222\332=\320\001\024>\003\274\221=G\375\301=Y\342\027<\336\373\017\276\2542\233\275\250\253\254\275`r\370\275\232\326\347\275\322w\257=\036\337\204\276\363\364\327=\033\237\036=1\3033=\020\020\005>\033\305c=\322\331p=\001\010l>\\i\251=\007J\356\273\252M/\276\321\360\005\276\320\010\325\275`-j>\226Hr>\356\273s>\001\002c\276\373I\376=(r\277\276Fp\276\2762O>>}\201|\276=\004m<\336\204\202>\222j)\275f\256\002>]\246\211\275H\300\265>\255:F>I\253\216\276\373\304J>\373OG\274H\212@>\367\214&\275\252\177e\276\370\332,\276\221\006e\276\220\220\335\276\355\362\334<\243S\255=S\214\323\275&\246\333=\312\322N=\322\333\275=\213\265\323\275\3728\030>\"$\232\276*H\374<\r\340\023>\200\240G\276\237|\355\275H\014\030>\017\212\276\274\246\264\001\276L\306\014=.\237\324=\367\374U\275\320\276\034\276z\332\203\276\230r\017\275\371\316\207=\363s\226>\325S\364=Q\331\326>\245\213\304=h\225\025\275\241\324\217\276>t\220\275t\353_>\004\303\232\276\245\373\223<\030\351\001\276\033\370\317>\361\324\242\276\014\325-\276\270\264\364<n\255>>\344v\342>#M\037\275\215-$\274[\370\233\275\351+6\276\320Y\226\276\226\3268\276l\205\202\276\343\277^\276\332g,>\0035\312\274\203\016\237=t\022\313\275J\001\300>\316o\265=6.[=\334\227\303=T\312`>\352\013\331>yp\232\276\rLn>\037\032%>\007\350\007\277K\256\206\276\356\035h\275ji\032\276W\307\245\275F\236\245\276L\373\230\276\024v\036=\205\372\252<0<r>m\344a>3\335I>\341Y\212>c\373\347=W%\255\2757\265\r\276\202\334\344=V2\004\276\357>\231<\237\312\242\276\304X\221\273D\231]\276\256\035\234>\236NQ\276\363r\027>\320\235\223\275\017f\203\275\254\304\025;B\221\263\275\310I\177\276\224e|\275.4n<\277\356\007\276\315U\006\2758i\254>;!\210>\021\262\347\275\233\004\206\277\003\201\370\275\241\371\352\275\377\266*>\224u\'\273\312G\210\276\217U\'>F\350)\276\317\340\034>]h\301=\232\352\225>\r\312\227=\300\210\361\275>_\326<E\204\251=v0Z>\213w\375=\333\3228\276\0054\013\275\367\376+\275.\366\'\276\313\222\244>\236s\271=#\226\255=\"\231\006>\270O\312>\3744/\275\376\323\271>\003\246M\275\377\371u\276\316lX\276+\314\t>\207\225\275=\263\363.\276\031\007\331>d\237\246>\213\360\003\277\301\231\032=\344\214R\276\203\026\243\273Y\347\306>\264\334O>J\3454\276\034\317\223=W\253\256\275ZN=>\314\321\002\275\273\244\305=|R\355=\254\267\220<E\342\226<\211\206\322=\206\261(\275\257\254 \276\006.\244\275p\323\313=\271\363\236\276\330\254\214\276\3075w>P%\240>0!\024>lQ\220>\371R\244\2755*\017=?\220E>\253\311\010\276[\363\203\276V}\007>\3571 >\016\306^>\366W\034\275{\375\256>\245:T>\337\365X=\004\334\200>\243W\324\276o\t`\276\351\017\002\276\2137\201\275\007>\310\276B\030\247\275\231M\241>\\\364a\275a\311\">1\215\324=\226-r\276\302\301\245>\005x\233\276D\233\006\275\2644\243=\037+\231>\277\"Y\276\365B\245\276\252[\030\276&\241\317\275\351\n\242=\375\021\255\275\353\350A>\3071\265\2754\242\240\276_f\217\276\330\375\001\276\tlb>qZ9\275\277\267\203=\000\340\001>\222.\236\276\257\374\254>\3313\210;A\\T\275\337\360+\276\240\274t>\203\356\177\274\001\307\257>a\256\331\275\"\271\211\276\265!?=[(\250>\013{ \274R\374\267>\240e\t\275b\335W>\370\250;=\236o\010>\336c\206>\237\306o=k\321\024>,\206\205>\316\014\251\275\3234\255>\356~$\274\241\202\325\273{\365\250\276\356\222\262=\264\033y\275Ds,\276T;\016\276\355\272\310=\252\t\242>\272\360\232\275\370{q>\210@\177\276\247\325\023\276\324\243|>\201!\315\275\304\026\034\275\330\333\274\274\266\311u<5)\023\276\004\2767\274=\230\350>\304 \317=\"\310\010<\322\262\333\275\213\357\001\276DF\342=\264\004\313>\271*\320=O:o>\272\021\323>/\025A>y\260?>\030,e>a\300\031\276\004\376\004\276\206\241\367<\224\262Z>\027\340\031\276M\226I=^\323\247\274s\354\240\276\336\306[\276\032V\360\275\200\003\342>\2022&>#\374\006>5\205Z>CYB>\\\'\276\2760P@\276\301\037\321>e~\245>d7\260>;\272\272<\022+|\275\267A\235\276\030T\r\276b\267f\276\0365@>l\336\250\276\036\217\332\275\207R\226>\n\'+=\255\313\224\276U\0311\276\214wk\276Z\233\322=\234*\247>\217\260\265\274\311P5\276>\006>\274\327L\000\275\226y\247=k\204,>I\331\230\276\316b\272>\237\312\323\274\315\035\206>\372\275a>\352\352g>\024\326\267=:\244\231\276\353\005 >Y\307\376\275~\346:=\217\214j>{z\343\276\251\016~=Xr\333=\377\3504\276\376\010\373=\357\275p\276\326W\206>\277\253\315\275C\216$<$\260\236\275z\014\177\276\234\261\032\273\271\363\022\276\264\237\024>\371\r6<\314\341s>1\010\305\276\350\206/\276\260O\334\275\341\\\017>\247[\001\276\224E\277\276\320\275\322\276\270\352\261>\317\267B\276Z\367\203>$\310J>\'\221\010\276\274|0>\357sU\274\311\260\372\274\270\201\207>l\276\264>~\237\004?\233\237\007>j\327\220>|\361\361\275\356\364\331<]\321\001\277\306Y\233\276\377\305\234\276$\335\003?\350\312s>\033u\321\274\330\204\007\276\037p!>\3240k>\340\204\253=\350\352g\276A\243\024>b;d>\3077\211\276\177x\271\274_\032$\275\237\216F\275\353\333\217>f\231\216\276\3678\n\276\311\3465>\027p9=\022Y\304>\252\017\250\276^\341\007>-\217Y=\233\370\013?\253$!\275\002p\371=\204ls>\243\247\334\276Am\335\275\314w\255>\274\210\241\276\201\034\244>\253\325\005?\261\t\312\276b\263\030>\237\212\231>\3621\215>\025T\021>V\274\357=\222.\000?\310\007\255<\270\262\366<k\227s<6\207\007?\236\256\026\275\321\234\342=\257\341\371>\013j>>V\037\363=q\332\336\276\240\\\250=\034\251 >)v\316>\005u\024=\311\\\n\276\370S\276\274C\211\321=\271\357\260>~\243\226\276\022u8>/\242\r\277\202\2453?*\330O\276`\262\306\275\333\342\241>V\230\265<a\223\224>\364\016\t?\262g\252\276\325\3328>\016\226\320\276\177\214\346<K\235\221\276\266\326\237>\356\021\021\276.J\006?<\037|\276\036Y4;Y,\021>\342M\025\276\276\354\332\276OU\226\276x\020\215\276\255\227\006\276\337\341\272>\037v\345\275=\003\362=A\247\352;\372\302\262\276\037#4\276\007\356\002?\232\330O==[\217>}\004\310\274\362/P\276\300a)>\242N\254>\0161W\275Y\020\275={\tt\275\272#\276>\002\222\252\273\300|\301=B&~\275\221_u>l\035\200\276??1<\233\016\361\275#@\313>B\001~\275\355\362\377>\263\300\340\275wT\365=~\336\310\274\251\205Y>\2007)\276\225_\217\276S\325\017>\301e\300>\003\236+>\374}p>\221\320\247>\277B\304>_\177>=\304\257\210>\024\260A\276a\257\230\276M\261\316>\341\220\001>\n|\377\275\315\263\006=^\036\365\276\362\220u>\326\335\267>2\317-\276\'\"\376\275{0\301>\204\263\315\2741z\205<\001\267\223\276\343\027C>\r0<>\037&\020>\353\225\312\275Z\351\026>\336\374&=\316\232\237\276\354\243R>\326\304\033\276 \014o>a\013\225\276D\\6\275\221\245<>\360\014\313\276kZ\025>\345\224X>zp\202>\272\2146\2768e\007=\241!\234>\006\036D\276\264\\\206\276G\323$\275e\2078>l\310\'=\005\022\021>\314\251\202>\367\300\031>6;\206>J\241C=\336~\240\275\006V\271\275\345\247o>4(\331\275f\010\004\276\210K\014=\342\237\035>\366\277\225\276_#\267\276\252~~=Gp\r\276\334rz=\030\365\221>\305u\306>\360C{>q]\270=\263\207\022\276\274\314\241>\366f\367=\326\260\360=\213w\205>\222\372\331\274\\\2531\275\337\253<\276\016\374\356=R\363\016\276\336s\034\276\2221@\276mX\223=\276\332\037\2742Id\276w\252\326\276\300T\201>\350;\017\276\370\212\004\276\177\263\233>Ig\245\276*M\266=\\\231\361\275r\325\315\275\340\203\276\272\002oz\2752\346\226\275\311\246\033\276m\300\302\275F\020r=X\345%\276m\177\223>w\253j\276\n\007b>:D\242<\206\207V\276\351B\310>4\360\036\275A\000\370=,f\332\274%S\277\274@\022\235=\262\344c>\362\000\246=\256\226\3539\024\213\347\275\213\223\205\276\002\333\211\276#3\022\276\313\200\260>\373J%\276\027\336T;jN\242;l\036\352<\0064\016\276\230\317\001><;\270\276s\327P\276\230\264r\275X\261\224>[\255L\276\250\374\341=\325@P>x\325\307=\325\257\237\274\325\353\200>\013Gi>}\002\030\274\325\270A>\316\\\327>\303T\240\276\253\2213\275\276\211\337=i\245\267>s\002\316=^\217\016\275s\236W>\3736\272>\373\211K\276\257}I>C\307\217>\006=\224\276\031:Q=P\002\326\276F6\032\276-\2268\2762\240\017>\251\362\020\276@\315\204\276\224\000_<\322\214\037>\207\376r\276\235\254y\276\010\234\334\275\212%v>\254\311\231>\034\317\033=m\252\224>4O\224<\206\017\024\276Q\371\266\275\227\241`\276\025\213M\276\367\"\'\276\317\030\264=\320\230\001\274\022\234\243\274\237cK\276)\342.\276\2315:>\332x_\275\235qT>Y\271\007>\352i\014>A2\254>,\002\354\276\206:\361\274\226\226A>\316\256\025\275\373bK>\230\"\324\276\024\021\207\275\236\002\025\275\360\205:>`\374>>|\304c\275\363\360\302\276\253\332\272\276\331J\022\276\366)\342=\300\253@\276\264vo\276F\0004<\261I\313>\325\324\223<\365N8\276ip\025?w\344h>Ls\271\276\\\r\230=\206\257G=;\347\326>\264\200\210>#\212\243\274\237\373H>w\355\314>\335\005\353<\213\014w>\0207\024>`Zl=\273\217\004\276\216\002\232\275\3205g>\005pN\276\313\262\266>\324\020\r\276\247\023\271\275\025\340\260>\361S\235\276\245\027t\274\337)\034\276\2110x>\253\315\014=\356\251\317\275\364\352\313\275\377\206H>\023\320 \275W\t\314\276\356\014\206=hx\251\275\370P\340>D \243\276\211\367*>5G@\276}\021\035\275\332\224\202\275;\306\004\277\177*\271\275\375\317\243\276\235\333r\276\3361>\275\262\334\023\276\275\201~\275\2423\373\275\020\222n\276O\000\271<h\214\'>nn\005>\351\372\251=\r\214\252\274(\207u>J\001\357\275\224\203\201>fy\221\275..\013\276\275g\352=\335h\257\275\300\r\354=\245\310\342\275Z\027\272\276\032\275]\275\016\217\214\276\000o~=U;:\276\007\006\336<\340\220\343\276V\333~\276\373\311\327=\362)\240\275\370C\n\276\343B\265\276\275\362i\276\016C\034\275J\341\320\275\201\234\273\276\260+\237\275\333\370o>\3140\312\276\237\n\020\276\tA\212=\305\321\002>\326RZ\275:\255>\275R<\000>Aw\344\275@\\v\275L6\375\275<Z\373\275m)\177>\220R\203>\350^\222\275\033\r\\\276\252\211\002=A\030\231\276\032\027\240\276OF\255\274X\022\303\275x5\023\275\226\241\004\277\034o\274<Bk\251\272\360Ls\275Q\3738>Z\337T:.a\346=\361\302\263\274\274j\310<\306\216\027\276\221\337\266\275\003\263\215>(\323\201\275+\253\213>XP\363\275\026&\027\276\370\274\263\275\033\024\277=\006\210\005\276\014\205\242\275\341>\205>\210\301\301>eV\316\275\277\2657>4T\305>\274\357c>N\344|>`]\255=K\227\202>\340$\346\2750\221\324<\027bU>\357#\324<q\"e\276?\341\210\275\372\353\317=\334\321\334;\313\340\030>\036\254\013\276kb5>\037\326M\276\216K6\274vl\263\275\353o\333=\365\247\351\274\320\321\031\276\3645\323\275\214tM>\006H\225=\232\3667\275H\236\334=\200\3769\276\212\375c\276xG\377\275TZU\276\360@\264>\331IO\276b;\215\275\247Z\310=6\246[=[I\325\274$T\026\276\214~D=#A\337<l\257\273=w\351\225<\316\333\307\274\267X\006\276\377\365\304>\216/\332=42\374\275\037\2744\276K#\236\275+\305\016>\263\341\025\276Q4w=c..>W\202\r>\221\002\001\276\277\027\t\276a\345k>_T8>\317\255\221=\366\\\236>\032\3302\276\254U\243<\361r\212\276\022\324\233\275,\243\203>\333\361\211=\327k\304\273\014\353Y\276\017\357\027>S\375o>\315\001\002?z\355\010>\260\016\330<\210\333\314;{>\007>%n\026=[\025F:\337\305_\276sa_\275\"\006a\276\350<\037\275\311&\212\274#\210=<\205Z\222\274B\350\222=\010\024\240\276\002R\335>|\300\226=S\231\335\275\321\264\007\275-@\311\274J\367y\276\372\001c>\217\367\315=$\3155>\262% \276\234\207\014\275\232r\304>\036\254\333\275\213Ha>F\352\327\275\241\177X\276I\257\272=\217\001[=\300U\214\274l\350\223\276\250\305\316>\327\034{>/w\214=\334}\234>{\024h\276&\253\365\275\340\237\212\275|8\256=;\247\204\275%)B\276\210\260\021\275Q\370l>e\345Z={\216\373=\256\335\337\276\260\316`>\017\374m>H\277K=t\372\023\276\330X\365<\340o\270\274S\264\211\276k\2211>\t\207\315\275Otp\274Ym\342\275\210j\331>n/)>\203 -\276j3/<\n,\037<\205\035\245\276\362\216\267\276\311c\352;\016)\237\275q>.\276\010\255\254=\246\005->\025\'\215<\010\210\'\276N\314\036\276\316!N<\206\317\300\275\213\017r>g\270\221>W^\242\275\332\004`\274\361\365d>\347\237Y\274%(\005>\243\350\264=\250\364\274\276l\202\266\276g\033\\\275n\004\246\273\356L\360=\303C\253\273\242Mm\274A\240*>\263K7>\027+\256\276\301q\252\276On3\276\033\276\363=\317i\375\275\006Hv\276\257\221\"\2756\177\234>\220\256\032>R\251\030>\0072\007>\002pd>\024\255l>K\205\021=x!\305>\006\247\335=\200+\343;\315\005\211\274J\356\260<C\212\231>\222\300+>w\302\220\276@\207\006=2A\207>\226c\025>[\232\272=qC\206\275\261\007\356>\274\335\303\275\014\027%>\270\r\235=Yh\361\274-\023\227\276,J\"=\206`t>E%\213\275\023<\006\276s]\237\276n\2150\273b\251}\275\236\315\366=p\330Y\276\261\350\230\275\226 \326=\225~C\276`\347!\276)\243\270\276\313gz=\037jf>\322\215Q<\02078\275~;\211\276\000\353\305=Z\300;>\023kf=\253\377\350;\364\341Q<\002\\\374\274#\014E>\237 \245\275\377\230\247>Q\230\340<|R\263=\310\340x=\323=K\275]\3375\275\306\026\002\275\243\271\323\273\312\224\207\275\024\201c=\370\263\021\276!C\251\276\310\366\271>\247\215\343<\211\027W\276D\366\273=\'!\230=\213,K\275\2339c>\\\000\257>\036n\252<\332Lf\275\365\223\375=\317[/\276\374\365\024\276st=\276\210\236\204>\0019h>h\316\301\274r \274\275\264\361\220\276\034N\211=)w\326\275D\337w\276\245w\263\276\240\213\234>y\366$\276}\305\356\275\034\216\\>\007\303\032\276\')\236=\022\305!\276\362\363\032>|\004\005>.A\257>\263\357\177>\030\235j>oe\231\276\272\r\361\274\255\345\215\276\325\315\271\275VT\214=v\276\307<\261\343S>\304\2023\2756\272Q\275M6\262</k\351\275\355Yl>\205\240\237>\361\036\036>\222\254L\275E\231\217\274\306\223\360\275a \241>\263Wa\276\031\333X=\021\362\364<>\322\331;\021M\244>C\305\213\276\371/\373=\3330g\276\0140q>\256\233\227\2754;,\276\231\376\306="
      }
    }
  }
}
node {
  name: "feature_extraction_block/feature_extraction_w/read"
  op: "Identity"
  input: "feature_extraction_block/feature_extraction_w"
  attr {
    key: "T"
    value {
      type: DT_FLOAT
    }
  }
  attr {
    key: "_class"
    value {
      list {
        s: "loc:@feature_extraction_block/feature_extraction_w"
      }
    }
  }
}
node {
  name: "feature_extraction_block/feature_extraction_b"
  op: "Const"
  attr {
    key: "dtype"
    value {
      type: DT_FLOAT
    }
  }
  attr {
    key: "value"
    value {
      tensor {
        dtype: DT_FLOAT
        tensor_shape {
          dim {
            size: 56
          }
        }
        tensor_content: "\275\264N=e\032\230;\200\232\310\275[\255,=\264B\271<\220\346\030=\257\177@<\257wB=\006\366z\2730\307\307\275\376\360H\275i\224G\275\264?\372;\367C\255<0\302@\273[g\203\274\023b\n=\257\330\321\274j\201\367< \326\244\275\376;\312\270.\2123=\234\016\332\275\353\r\205<DL\240\273\237\376K\275\007g\014\275zUq\274N\362\241<\322_\300;\213\237\234:@\263\377<%\034\236\275\232\270\036\275\375 Z<\036y\014=g\315\253\275\341p\224=NI\234\273f\376\221<\311\031v\274\251M\000=\247\316\n\276{\313\331<z\353(<\335\366\024=]\344\332\273\332e\312\273\203\341p<\372\346\331\275\020\307\273<\256t\007\275\347\250(\273:\324\240<\257d\343\274\305}\336;"
      }
    }
  }
}
node {
  name: "feature_extraction_block/feature_extraction_b/read"
  op: "Identity"
  input: "feature_extraction_block/feature_extraction_b"
  attr {
    key: "T"
    value {
      type: DT_FLOAT
    }
  }
  attr {
    key: "_class"
    value {
      list {
        s: "loc:@feature_extraction_block/feature_extraction_b"
      }
    }
  }
}
node {
  name: "feature_extraction_block/Conv2D"
  op: "Conv2D"
  input: "images"
  input: "feature_extraction_block/feature_extraction_w/read"
  attr {
    key: "T"
    value {
      type: DT_FLOAT
    }
  }
  attr {
    key: "data_format"
    value {
      s: "NHWC"
    }
  }
  attr {
    key: "dilations"
    value {
      list {
        i: 1
        i: 1
        i: 1
        i: 1
      }
    }
  }
  attr {
    key: "padding"
    value {
      s: "VALID"
    }
  }
  attr {
    key: "strides"
    value {
      list {
        i: 1
        i: 1
        i: 1
        i: 1
      }
    }
  }
  attr {
    key: "use_cudnn_on_gpu"
    value {
      b: true
    }
  }
}
node {
  name: "feature_extraction_block/BiasAdd"
  op: "BiasAdd"
  input: "feature_extraction_block/Conv2D"
  input: "feature_extraction_block/feature_extraction_b/read"
  attr {
    key: "T"
    value {
      type: DT_FLOAT
    }
  }
  attr {
    key: "data_format"
    value {
      s: "NHWC"
    }
  }
}
node {
  name: "shrinking_block/alpha1"
  op: "Const"
  attr {
    key: "dtype"
    value {
      type: DT_FLOAT
    }
  }
  attr {
    key: "value"
    value {
      tensor {
        dtype: DT_FLOAT
        tensor_shape {
          dim {
            size: 56
          }
        }
        tensor_content: "\354r\002?,Da=\355\335d>\0268S>\013\300A>8\344\206?\363\031\211?\014Zh??\265\177?w#\023?\325\301^>@\322\020?\205\357p?\022\177\206?\354\356\215?\340o|?\021\272\204?\366\032*?wa~?3\031X>y\305\201?u\037{?\340\264\212>\316\177{?D\303N?\232+(>^4U>\316o\210?Q-s?\261\250_?a\253,?\316\t\202?\212\003\211>\214}\257?\207]}?\260(U?L[Q>!sy?I[\200?\'\370\207?Fr\204?\332\307@??\253S>\377\317|?W\235\200?\243\254v?mB\205?\242\030\205?\275\367\200?.\326d>\347\026\221?\235\312n>\013F\201?\205\203\211?\203\214\236?\232dm?"
      }
    }
  }
}
node {
  name: "shrinking_block/alpha1/read"
  op: "Identity"
  input: "shrinking_block/alpha1"
  attr {
    key: "T"
    value {
      type: DT_FLOAT
    }
  }
  attr {
    key: "_class"
    value {
      list {
        s: "loc:@shrinking_block/alpha1"
      }
    }
  }
}
node {
  name: "shrinking_block/Relu"
  op: "Relu"
  input: "feature_extraction_block/BiasAdd"
  attr {
    key: "T"
    value {
      type: DT_FLOAT
    }
  }
}
node {
  name: "shrinking_block/Neg"
  op: "Neg"
  input: "feature_extraction_block/BiasAdd"
  attr {
    key: "T"
    value {
      type: DT_FLOAT
    }
  }
}
node {
  name: "shrinking_block/Relu_1"
  op: "Relu"
  input: "shrinking_block/Neg"
  attr {
    key: "T"
    value {
      type: DT_FLOAT
    }
  }
}
node {
  name: "shrinking_block/mul"
  op: "Mul"
  input: "shrinking_block/alpha1/read"
  input: "shrinking_block/Relu_1"
  attr {
    key: "T"
    value {
      type: DT_FLOAT
    }
  }
}
node {
  name: "shrinking_block/sub"
  op: "Sub"
  input: "shrinking_block/Relu"
  input: "shrinking_block/mul"
  attr {
    key: "T"
    value {
      type: DT_FLOAT
    }
  }
}
node {
  name: "shrinking_block/shrinking_w"
  op: "Const"
  attr {
    key: "dtype"
    value {
      type: DT_FLOAT
    }
  }
  attr {
    key: "value"
    value {
      tensor {
        dtype: DT_FLOAT
        tensor_shape {
          dim {
            size: 1
          }
          dim {
            size: 1
          }
          dim {
            size: 56
          }
          dim {
            size: 12
          }
        }
        tensor_content: "V[\277\275;\243W\274\023\324{\276\214\271^\276\266\230\265\276D\243\034\277\373\337\372\275A\005[\276\t\356\203>\246\343~\275\360&L\276\364\001\030\276\276!\247\274\204\333\300<~*\250\274\026QE=\"\270\235\275\2077\006\276j\317\334\275\"\233D\276\3266\235\275.\273\207=)t\000\276\324\376\253>9\353\001>\234\271\006>\260\326\225>\314\363\211\274K[\322\275\220\305\220>2kW>7\377\225>~\351\326=\035\221\334=\363\177\225\276K\203\376<\306|\003\276\320\222v\275\312\010\351\273\340r;>?l\375\275*\376\236\276Hh\251=\267\2177>\3652]=\230Z\323=Mk\t=y\204\036>^\311\375\274=x\253=\031!\007<\r\375\324\274l\352+>qg\243=\256t8\273?\245\024>\211\323\201\276\242!\272=\013\357\331\275\212Mn\275d\302Y>}\340\254<\364\177\270\275\3547\034\276\243\336r\276\364\026\241\275\221\267\223;\307\250\007=L\274\357\275r~G\275\342G\207\274\365$r>\305\320\'=\223\244M\275\"\346\353=\227>\314<\240\223\264;\334m\230\275 sB\275H\253\325\275\354\351\203>\022\316\203=)\306\233\275\032\307\226\276H\365t\275\275\023]=\364\225\360\275\303\031!=7@\006>U\016@\275!G\351\275\355\303H\275\373\002\320\274\247\205\224\276[\001\223>K5!=<g:>h\006\025\276|\207\212>R\202y\274]B\203\275\363\3231\272)==\276\231\246x\276yZ\352\275\030\364\354\274mo\211\276\340\"\265\275\301\342\304\275\306jX\276\310/\241\275y\027\017>x\"\311\275KT\314\275\265m\212\275\363C\206\275\354\270\324=\000d\273>R\r\273=\343?w\274\371\223#=\306\276f>\363k\016>B5.<\235=\210=x\333\246\274\254}\220\275$/H<sa4\276\233p\370\2757y\212<\311=E\276qC\322\275\013\261\323=,,\217=\200\020\375\274\n\364*\276\372\220\207\276\3637\224\275\216\300w\276A\250\302\275\313m=\275`\366\201\274h\016\307=\337\035\317=V\255K\276\001\274&\275\265\215L=\034e6\275\\(q>\260X\213\275\312\225\'>\033\026[>\023J(\275+\275Y\276\364\274!\276@\253\225=\261U\316\275c\004\363=A\361e\275\347\343\223\276\003\230A=\240\3152\275\356O\332=\255\350\261\275\375\247?>\317\001l\276\006{\005>>\026\303\273\210$\302\275a\235\212<\3031\371\275\\\301\202<\370\251\232\2750\307->\177\234\025\274\014\272\210=v\027:>\277\020-\276\231~f\275\342\324\214\276\364nk>\211\250#\276\323\001\211=\006 \277\275\020v\n\275\037\305\324\275\330\206\216\275\301\244Q>\'I\277\275T\033#>D4,\276N\226\303\275\027\314\241\275\210\235\272=\316QC<sX\337\275\tI\352\275\226\345\034>\374\'\245\275\340?\210>Va?>\235\360U\276\237g\224\275\303\233\237\275\213\271|=)\266~\2753\264i\275E\034\030\275Z\302\210\276\213\237\317\275\204\3002>;\203\222\275\201\201\030\275\216\211\026\275z\273\213\275/~\004\276e\177\253>\3378\345=\'\231\334=\325lF=\266DJ\275\307\033\224\275tq\271=\033\364\344=\';\222\275\034\252^>Z2\037=lu\313=\r\275$>\207Qa=u\243:<\320\255\312\276g}\216\274y\263V\276\365\327\273=A\374$>\022\025V\276\304\203V>\014+\342=\'\321J\276H\025`>\251\342\256=\300\250\257\274\211<\332=\024\304A\276\270\251\005\275\227n\241<\030\353\204= \336\220<\333\333\003\276\356\364\037\276\017$\375=(\247\016>\tr6\276v\334\273=\342\002S>\337hv=\261U\207=\243\231\262=F4-\276oA\023>\245\320V>G\220\221\275\214\006M>\360\323\255\274f\n\215=\003\216\021\276\016h#\274z>\306=\377\026\">\177\236K<\252\347\376\275\214\303\2319V\036@\276hL\204\275\330\245z\274TY\261\274\342)E=r\0059\275\306K\032>\221\300\004\276\311*\356\275c\303=<\271\371\036>\325\003\320>\371O\007<\231\252\304\276\301\364\373:\021aB\275\022\033\273\274\030\256\025>\355-7=\330\242\225\274\302nY\275t\332_\275!2D>\213l\206\276\030\307\313=\362]\023\276\310\207/\275\307\243\000>\240\224\353\274\273\375\037=k6!>\350_\303\274\020\331\327=\265\326\030\276\006\275\305=lu5\276\035(\037=\241\327\260=\244\266\2148\001\210\347==\213\252\272_\001j=\031\364\022\276[%w>\356\333\237\275\237\020\243=\201\027\307\275\266$\002\276I\206t>\2672\t>=@r>r)\370\274\235\367\216>\367\257\027>\364\014\271=qvM\276\023\203>>\"\211\037\275\261\327i>!`[\276[\237\334<\212:d>Ge\304=\257\003R=\305\036z>\201]\206\275\233(\272=\005\201;>\024|A>$\352\034>\rc\326=\025ic>\371)\013\276!\220\025\276*\236V\276z&\034=\251\211R=\216\031\025\276\320\366\310\275\313\t\345\274\310%\t\276=\235\232\2744\224\030>O9\3769\036\006@\274\230\273\204>\375 j>\205\014\274\275\354\013)\276zz\350\275j\272\200\276=\371\013>\2275\265>\005`\037\275\314{\010\275\243\364\246=\356s\237\276\303\334,\276G?_>\234\321\366=q\217\021>\373\364p\276\032\014\216\276\342jk>QT\036\276q\335^\276\230\363\336\275\207\242I\276Hd\014\276\330\254`\276\317\264\311\275?KB\274\213\014\321;N\366\304=\323Q\006\276FO\222\276l|\205>`Y\r>\202\267W\276bU\244\275\220Cs\2760\376\216\276=\212\216\276\201\014V>\010\301\232<$\346I>\364\313H=\310\251.\275]\3419\276\360\211x=\263~P=\022\261\006=L@\214>\251\272\326=\005A\317=n\322\003\275~\312\002>\351zG<\247\322A>1\365^\276\3707\020=K\240:\276\345s\344<p|0>\365n*>5UE\276\234\375\312>\362I6\276\373u\301=G\224H>s\217\r=\261Yb>\341G\342=i\305\254=\035\010.\276\007\004o\276^\212\317=dh\032>\336\002\206\276\004\330@\275\316&\232\275\244 \017\275C\\\024\276\325(C>\014\366\017\276de9\276p\2704>\2252r\275\177\215\376\275\017\215L=\272\226\004:?[\247\275\271\"\030\276\226\300\'>\255\354#=\037\370\270>\305\017\032\275M\020\362=\034\031S\276\270\001\266\276\242\231;\276\271\277\204=\370\361\241\276\035\316\004\275\177F+\276\257\332\017=\037\251\002=U\252\242<)Gd=\357\376\030\276(\225\013=\201\027\235>\303\203/\276\2166\032\276&U\241=\364\275^\275\303\261j>\223\0223\275\210\267\206<-Y\364\274\316_\232\276RAZ=\036\013\204\276\322_9=\003\357\244\274s\026)>\2603\331=%\230\242\275\370&c>\236Hg>\330\023z\276\210Z\024=\213c\214\275\035\207P>\272\023\027>\375\017\350\275fG\226>*k`>\022\241\235\275v]Q>\236`c=\347\200\035<\235\333\017\275\'0\302\276\177*\252=\306)c\276\021\313\r\276P]\312=P\026\205\276\301#`\275~\330\346\275\3232}=#\027%\276\317\215\315\275j\305\251\275:\247\265\275\277\332\323\275Z\260\205\275\227k\357<|\026\364\275U\333\364\274\242d\214=K\324K>9\r\334\2740e\211>\226\3673\273\027\315\225\276v\301\310=\233\374\n\276\215\305\366\275\272\213g><\265b>ao5\276a\216)=Y\225\320<\016\326N>\267KW=\330\367\333\274$\303\336\275\344\307\264\275\304~%>/\377J=\024\317^>\304fR>\322V\003\275KJ.\276e\344\267=\225\264\177\2767\'p<\031\274\261\275\n\356\216\275/1\217<\260h\344\275\201\307_\275M\317\202\276\3669\005\276sG*>\247\305\001\275\371-\270\275\233\273\210\275\342\366w>\310H\n\276\231\264\320=\205\214\235=\273?\275=\030u\013\276\364>*>\235t\310=\0054\317=\264\201R\275\275.\205=\177\305\234\273 @\257\275\320\313\377=\232x\231=c\203J=j\263u\275\020D\345=\247\305\353=f\333\205\276wR;=i\335\363\275)\367J\275\014|\035=\022\0337>(\340v\275\266\207\266\275|\250\n\275\261n!\276\342\370\363\274\350\3308=\364)\002>\"\3273=\n\376Z>3\303%=\376X\344\275\312\227\253\275o\332N\275\031&0=4\317\006>\345\303\314=\021w\350\274U\006\202\276w\263\352\275\025\204\215\276\357\355\252=\277F\344=\210\241\034>\303\341\031>y\210\364<IP\210\273\257\007W\275\314?\361<\250~T\275LAX=\353\031\007>:\336h>\377\016\203\2759\361\251\275ZgT\275\351W\265=\324NG>\020\315\264=Q\352\t=]\017A\275[\3762>\242\030\222\275\340\315\356\275\203q\377\275\3018\220>z\223\232\276kuC>\220u\313<Y:\214=\275\371\262\275\225!z\274ock>\335\340%\273D\025G>v\345p=\343\311\206=,\004\010>\037\017g\275\361\3567\276\257y\276\275s\323]\276\233\211V\276=\222\335=\036\311\\\276zx$>\273\002\010\276?)\357\275D\267&\276\034_];+y \276\312\307\241=\344T\036\276\354-\331<\245\365\223=\317\304\001\276\222\\m=xo\276\276\351\013\330\275\245kk>\277\311\232=n]\245\272\n\303D\276\256[\025>\037H\362=~L\312\275:\220M\274K\247\210=\306dc>\2732_\275L\340\361=u\211\266=\004S\021>7\351\025\275"
      }
    }
  }
}
node {
  name: "shrinking_block/shrinking_w/read"
  op: "Identity"
  input: "shrinking_block/shrinking_w"
  attr {
    key: "T"
    value {
      type: DT_FLOAT
    }
  }
  attr {
    key: "_class"
    value {
      list {
        s: "loc:@shrinking_block/shrinking_w"
      }
    }
  }
}
node {
  name: "shrinking_block/shrinking_b"
  op: "Const"
  attr {
    key: "dtype"
    value {
      type: DT_FLOAT
    }
  }
  attr {
    key: "value"
    value {
      tensor {
        dtype: DT_FLOAT
        tensor_shape {
          dim {
            size: 12
          }
        }
        tensor_content: "\312\355\243\273\2654b\273\3642\212\273\265,#\274\302\213\213=\210\361\t=\034\323>=\375\270&<\035\355\333\274ih\210\274F!\'<\362\364R;"
      }
    }
  }
}
node {
  name: "shrinking_block/shrinking_b/read"
  op: "Identity"
  input: "shrinking_block/shrinking_b"
  attr {
    key: "T"
    value {
      type: DT_FLOAT
    }
  }
  attr {
    key: "_class"
    value {
      list {
        s: "loc:@shrinking_block/shrinking_b"
      }
    }
  }
}
node {
  name: "shrinking_block/Conv2D"
  op: "Conv2D"
  input: "shrinking_block/sub"
  input: "shrinking_block/shrinking_w/read"
  attr {
    key: "T"
    value {
      type: DT_FLOAT
    }
  }
  attr {
    key: "data_format"
    value {
      s: "NHWC"
    }
  }
  attr {
    key: "dilations"
    value {
      list {
        i: 1
        i: 1
        i: 1
        i: 1
      }
    }
  }
  attr {
    key: "padding"
    value {
      s: "SAME"
    }
  }
  attr {
    key: "strides"
    value {
      list {
        i: 1
        i: 1
        i: 1
        i: 1
      }
    }
  }
  attr {
    key: "use_cudnn_on_gpu"
    value {
      b: true
    }
  }
}
node {
  name: "shrinking_block/BiasAdd"
  op: "BiasAdd"
  input: "shrinking_block/Conv2D"
  input: "shrinking_block/shrinking_b/read"
  attr {
    key: "T"
    value {
      type: DT_FLOAT
    }
  }
  attr {
    key: "data_format"
    value {
      s: "NHWC"
    }
  }
}
node {
  name: "mapping_block/w3"
  op: "Const"
  attr {
    key: "dtype"
    value {
      type: DT_FLOAT
    }
  }
  attr {
    key: "value"
    value {
      tensor {
        dtype: DT_FLOAT
        tensor_shape {
          dim {
            size: 3
          }
          dim {
            size: 3
          }
          dim {
            size: 12
          }
          dim {
            size: 12
          }
        }
        tensor_content: "\026\010\002\276N\223\356\275\255!2\275\323;\230\275\205\340c\276\344\227\020>\250TT\274\374\0376=\306>\370;\334\272\250=\266tx\275\240\305x=\207+\242\275\266[\276<A\016b=E:\203\275\307\243m\275:\030\234<\255B\n\276\301f{\275\361\3626\275\024cr\275\001b2>\030K\374=\2362\342\274W\007\030\276\021\010\360\275Gn\237\274\240\373\026\274?\211\217\275DCO=s\311\204\275\001O\261\274\364\274\270<\232\313?\276F\035\266\275Y\003\253=\323\261[\275p\266;\275\204\0234>S?4=U\233\374<\177\321\024>d8\312=\004$F\276Ov\316\274T.\022\275zC\206=\301\230\324\275\300\017\243\275\3334\004\275qV\000=\236\346\300<\201\n\033\275\274\363\272\275J\267\310\275\373Jp=\204$\272\274\022\240\025\276\310\252\237=)#\216<0\201)\275\332\316E=#\013\214\274\376KE\275}A\013>\347\014\242=\375\003.=\253\220\301<\331\033t\275\255\304\363\274\007\370\275\275+\305\304=d\332\372=b\242 \2754s\256\275\373T\031=\362\002:\274\251\nB=g1\250\275\214\263\226<\212>\230<ze\323\274r]\034>(\337\275=\004\377\210\273\333m\331=\237\013,\276q;\\=\355>\343\275\"g`=\t\006\246<\362\006.>\327\344\234=\032\354\216\275A\037\363<\243\245(\2757\024\211\275u&\255=\252z\024\276<\020\005=y\360\321<X\255\247=\315G\247\275.\277%\275IC\201>\"\227\031\275JL\r\276\334\0329\275m\201\313=\004\222\217=\217\'\031\275:j\203\275#\231\345\275\035u4>\013\276\376\272\360\361\222>:<\214\275?u\244\275\372\2567\275\021h;\275\377\017n\275\014B\013=\025r\225\275\331$7\276<\335\026>2v\210<\027\"W=%09\274\366\211\360=J\262?\275-\241\362\273\333\375_\274\203\323\245\275[3?<\227\356\250\275\031\221\267\275e*\375\274^\237\350\274\206\014\241\275{x+>\262\245\226\274\031v3=r\254\332\275F\001\267\274\275\373\251\275\225!\363=N@3\276U\214W=\314\367\266\275\016\206\356\275\302\026\372=\334*\027>,\031y=\3444\205\274\244\262q=\214\363\001>y\337\320=\2379\346<\356\245E\272\304\3709=$\221_\276m\265\265=\002\250\234;\205\207\202=\363\301\342\275\265\231\335\275\342L\"\276\233P\210=\210\220\007=,2\342\2745[\320\273\r?\230;\013\342\227<\374\374\261=\034\003F\275\236j\">\352\201a=w\254K=\376Y\211\275D\323$\276HIX\275\325\357\320=\331]\364\274R\334;>!\205\250\276f]\357<\340f\004\276\345\265\002\275\006o\266=i9I\275r\262&>\236\234\363\275P\220\002\275\257<j\274\277dF\275V\216\243\275\366\"8\276\233\3321\276\260!Q\276$>\214\275\321.\345=\336\304\'\276\363(]=\223\020\033;\"\233\031\276\236\'\305=\345A\201\274\362\235\303\275\2735\035>V\362\375<Ft\275\275\256\340\251\275z?K>\027\370\257\275:H\235\274\034\270\343\275!J\003=\255\345\367=\207\377P\276\000S\233=\260\344\003\276C2\234\274\365t\224=\275f\356\275\3275\361\275\243\0029\276B\370!\276\205\276G\275\254\371\332=n\260\305<k\034Z\276\305\272\212=\257\304/>w\245\327\274\206\013\222=-`\004\276|\2247\275!\366#\275\n#8\275U\"\002=\364\2601<\324\235\330\275\244c\363\274x\000\232=\025\213\004>k\304\203\275\241\222\346=fY\330\275`%D=\3341%\274!\371\342\275[2\253\275BH\035\276[j\035\275\316\343\210\2741\034\245\276\212\377W>p\211\337=c\345w=\237\327\341=\200\357\336\276G\325i\2765\022\310=,\321\277=\025\3749\275u)\032>\372\322\207>\373O\031\276\222~\275\276\'2\263\275@\304\034\275g\240~={r\244>E\342\233\275\221\304+=\372\227\013>W\354\363\273\375\023p\275\356\000h=V\217\344=X\376\357=\305\030\301\272\272\244\330<:\014)>0ZI>\242\370\n>\207\272\313=~\307\001>\266\372\242\275\331Z\216=\344\210\371\275\2666\255;A\314\343\275.H\t>\2559s\275!D\260\274\244\351\001>\376\237\005=G\035\311\275\312\264y=\2473\177=\273\351\355\274)@\025\275\036\336h=\206I~=iI\230\275p\000\307\275Q\345\201\275\031R!\274 \346&<\030P\346\275\254\267e;\356\203i\275*\035\345=\205\005\004>\226\031}\275\202\022\212=\3054\342\274k\261\233<\327\307\320=\n\313\362=e\346o\275`\3451=5\027\237\275,\373\255<\034\340\223=U\334\367;b_\215\275p\326\020\276-\252\235\275\2426\005\276\370\275\213\275,X\004>M\322\246\275m5D\276\"\326\250\274\262\0041<\211\237E\275\263#\300\274\244\341\306<\336q;=\335\304|\2756\365\365\273N\301\020>g\277C\276\341\253\031\276zS \276\341\\\333\274\177p\036<\273\362\023=\324\030\207<\301+x=If\004=\365Y\233\274\274|\245\274j\240\2518J\324>=\024\016\026=\205\275/\275\304c\247\274\\\3747\275c\032\342\275\214<\264\275\300\240\014\276\007]\333\275\241\036\352<\031LC\275\0233%=?\330\\=--\023\275\370>)\275+\356\322;5\371\343\275U\2043\275>\320+=?\336M\275q\006\336\273XX\337=\025\263\001=\021\317\357=\227X\004\274\274\313\242\275\211\226\231\275\354z\212=B\254\035\275\374\004U\274\203V6\276\332Q\005\275#\032\036\275D\305`\275\243\304\000>z@\237\275\355\210\216<\226\013\215<`5F>\344\221\010\276\211O\254\274\202\266\366=-\320!>\222\372\022>Q\207\312\274-\021\361=\034\326\031\275%j\021\2720\377\363\274z\246\337\275c\311\022\274s3\r\276P\022\340=~\337\346\275\231\025\024\276\321\246\367\275=}\216=\276\336\t\276\232\336$\276\001\202]>\314\271\333<k\365!=\005q\200>\277[\301<$\007\023>\327\0344=@O\021\275Y8\205\275\246\237\234;n4X\2769\372\252=\215\204\376\273J|;\275\232\325j\274\034\017\n\272\347\331#\275\023t1\275\270\225J\2751\312\226\275+\215\262\273\000\225\t=\027\354\033\275\353\374 >!S\221>\360\337\037\276^\016\335\275\303@\216\273%\366b\275:D\317\275\001G\031\276\312\237+\276\336\345\346\275\300\333\272\274\364\254\251\275\346\275@>psn=\022\207\314=\324\3656\276e:\007=]\256\365\275\377)H>\004p\352\2752\256\305\275\26335\276\300\177\211\274\001\034\260\275\350q&>\204JL=\330?>\275\201\277\037\275L5\253<,-\262;\243k\223=:\336\n=\341\030:\274\317\366[=5*K\276j\3577\275u\236\214>\330j\200<\261\255\210\276\261|\022=\204\230\202\276\037\205\310\274p\253W\276i0\020>!d\243>\212X\271\275;t\203\276>\225\000\276{Nd=4\301b\275\253\332d\276\233\3655>\254;\221=L\305Y>\241\342\016\276\275\326\226\275v\013\233=\t;\233\275\265\345\215\274e\324\310\275\302JU<\231\343:\275\210\2634\2750\265 >7\316&\275\177\0232>\004\317@\275\371\337\265\275lY\211> \016\016=\250c~\275\217\016a=\257\364\256<\0175\233=}\203\203\275=\000\222\275\014\030\300:xi\342=bh\025\275M\242\225\275\216\375\213<\025\002<=\327;8\275\253\253\231\274/J\344\274\2565\244=Rf9=H~h:\306\014\354<\261\020&>\270\366\014>\251\232\332\274\211\253\256=\317\250B;\305o\016\276~A\266=\211X\033\276rfJ\276\350e\256;\223\3329\274\305\212&\275\341\352\336=U\253\230>\376\264V=SE\306<1\264\217=nKo>b\017\003\276\342\361p\276y\254\312\274\020\r\177=\332N5\275\2465\357\275\361&\354<\252\372\036\276\231\275\212=\316\316\372\2750\236\201=\344\260$\274o\365\004\276\254\301 >i\361\246\273}@X=\231\313c<\356\377&>>\363\221\276C\335\006>\306\200\332<\273#D\276e\317\207=\301\265\'\275\353\374\252\274S\003\002=Bat\274\353T\000\274@\032\315<\326\235\242=:\222\306\272\320\244\'\276\331\335Z\275%9\352=]\271\032\276aH\230\275\323A\025>-\200>>\334\n\004\276=O}\276\200Z\262\275\324\227c<\035/\244<\315\241\334=\200\003v\275\352\271\353=1\254\030>@\n\022=\2226y<\377<\025\275\033\016\353\275\365P\244\275\263\362r=@\"\021\275\2046E>\26634\275\362\226\314\275\235]i\275\233\321\013=|\312\312\274fR \276\354\026R>\320\224\301\275\2568K\275~t\244\275\366\377\325\274\332D\323<\224i\001\273\377\305\343\275\t\0073>\006\224\025=\000E7>\010\365\004>\274\355Q\276o\030\216=\340\243\314\275\341T\177=L}\301\275\177\270\364\274\233\244\037\276\032a\360\274H\220A>\263\374\030>EMO>\326\232B=\1779M\275\237\310\234\275E\273\230\274\026N\017>\022\306\230>\226\256^<\273H\367\275\223L.\273fi~=\371\320\201\275|\315\361\275\205\377\343>\300\336}=\331w\002=\\\177*\276\210D\317\275\333\215\020>\324}\253\276E6g\274\006\237\017\276\224`\337\275\202\274C>f\337\351=xU\336=\225\220\210>\273\265\205\276\200\3308\275!\022<\276\024ep=\004p\260\275\350\215!\275\273J\362\274}\t\004=+\276\211\275h\t*>\247\314E>\275+p\275\224\360\006\275\2341\004\276<q\200=\373\237\003>\222:p\276*\252G<\225\312\006\276\\\267\002\275\016r\256=\205\0044>\270\237\323\276H\377\327=+\236\255\275\300\010X\275\257\013S=\246\373\244=\356\356N\276\241t\025=\361\"2\275\242\277\017\277\363Ma>&U\032>.\004\264\276\323\030\005>\275 \264\275\217y=>\323\312\341=\254%\201\276\234\351\323\275\221\021O>J>\243\273\\>\377>\266\316v<[s\225;\207\240\304>=\334O\276\305\363\220\273R\365a\276Q\371\257=O}\010>\341\247e>}T\205\275\027\010\255=\037#\322=\350~\236\274\223@\365\2734\"@=\305\377a\276S3\333<\034\210E\275\336g\016\276\366\356\206=\223\361S=\005\t\017>1\005\024\276\240\365}=\205\363\334\275\010W\002\276\365\366\221>\244\272\242:\317Cn<\265\200\220\276\211p!\276{\2014\274c\204\233=)\250\311=\201\344\033\275\005\202W>\314\222<>\364m\371\274\332\250C\275\210\325\363=\0101q=<u\352\275E\323<=kwh\276TPQ<\210d\010\274*\207\272\275\260\320\223\275\306\263\340\275\333\201$\275ol\205=\303\325*=\332]\306\274\242\257\364\275K\233\210=U\037\376<\247\232\352=\352\326\235=\361\267\354\272\323\265G>*\201\216=C\033\236\275\234b\357\275\207\250\200=\216\357\342=J73\276\320\307\235=\3633(=\262Q\032\276~\221\231=\214\020\227\272z\200\331=\nu]>\014\206n=\0246@\276,\203\242=\321\334/\276}\003\025>\014\2248>\034\347\222\275\271\333w\273\3542\256\275\242\206-\276\014\265\034>Y\345\035\276\205^\266=b\212Y>\272\230\356\275\245\351h\275\226\302\000>\205\254\336\273\201\202\001>\016q\014>\225\325\014\276p\027\262=\331\263H=\353\223\212\276\224\324\246=\206#\225\275\'\345\272\275\215H\213\275_M%\276M\363\020\276}\'\036\276jP\272=\244[\024>\210%.\276)\244\234\275\237Qf\276c\276\020\274\370I\260\275\310~\255<\033\242\337;\312T\271<7\027\320\274w\324!>\267v&\275U]\"9\376G\262=\267\306\266\274\277L)\276\306jZ\275\372\3335\276l\311\022\276\272\364Y>\255r1\275\177\327P\2740\343\032\276\336gU>\201$\250<\345\022\202\274\376\3349\275\023\240\255\276\367\355\025>T\026x=b1\005\276x\301\222\276z2\t\276\230\244\003\276\271&\025=\334\233\032\276c\270!\276&F@>\024\030>\275r\262H=B\234\020>Jb\237\275\246\351\366=\213H-\276C\372\004\275\370\025\344\274\232\340\302=\005^\250\275:\n\235\274\252\nx>q\260\263<\252\345\212>\003#\002>\265\265%=\315\252\n\275\247\304#\276\210\310\013>\371A4>#\327\322<\264\200e\274>\202\005>4\r\r\275l\375\364\275\262\212\240=\221\210\256\275\235kB=\265^\004\275cQ\374<\362\252\210<i\276\017\275\277\220)\276`$\331<\346Y\177<\353m\325=\246\236\335=X\2022=zf\203<\305\3157\276\371\267J=@d\244\275@\257\261\274\\\241\214=o\331b\274\375\344\262\275.CR\275f\210\010<S,\320\275\001\262S\275\303?\273=9\344\327=\376\317\372\2751\212\026>nT\325\275K\374\233=_\t\231\275\207\377\003=+g\025>)r\274\275\363\005\247\275\241\204\267\275\252\277I=\211\233\014>\334?\340=o\326V\275\217T\237\275\213\346\301\275o\357`\276\374\341b\276\235C\320\274\367@\320\275.h\032\275\205u\375<\2064\004>\340\363)>\005\356)\276\365D>< ]\034\276=\244\240=i6e\274&\3744=b\026A><4o<\364r\336\275\227\275\000\276\245ko\276\021\343\273<\374\341[\273\tt\276=t\000`\275\335#\312\275\003\014T\276\357\247\304\275rB\263\275\260\016J=\274\310\341\274\243E\316\274~i\375\275\014\312\236=\"\017w=\'\031\216=\246\337\222\273\237\342l>\345C\014>L\364N\274\356\375\365\273v\337Q\275\203\346\247\275\306\212\241=\222\020\274=)B\361;_\024\264;SY\202=\363e\034>\270\037\362\275yB\006\275\240c/\275\355\354o\275\321\202\250=Xw\244\274\261\254\013<C\337\202\275\3055\250<\344:>=\325\242\367\275\037k3\275\206\0235\275\374\370\254\275\207\247\213\275\372\215*\275\236\365!>D\206\014\274\231J&>\214\t\303\275\010\340\267\275\352\3657=\267\340\034>\200\034\314\274a\232m>\352\372\226=y\252X>-\307\r>R\213\013<\233\372 >Pk\000\275a\264\336<Gk\271\273Q\307\317=R\372\024\276q+P\273J\312u\276\241\303K=\23497\276,\250\322=\314\231\347<_k\200=\274\353\346\275\246[\270:\367\252\030\275\217\227\361\275Mg\025\274\216\230\375=\375\242\332\274C\2732>yI\252= \200O\275Q\005O\275\301\314\016\276r\343\243>c\331\004<\2537&\276Vu->Ok\213=`\006N<\231d\367\274\356\201\213:\345\242\277=At\302=\263\325\221\274a\311 >\010\373O\275\313\'\270=;\300@\273^\003\275<\317\336\000\274\327\256\347=W\177\246=\304K\277=\225<\316\275\233\245\003\276\371l\342\275\371\244\356\275\212\270\017<3\275\010\275\327E\t\276\t\032:>\024|\366\274\224\\\253=3r\333=\346\240\014>\305\250\361\275\035\036\226=o\301\323\275e\316[\276\021Y\032>\345\341M>\233\270j\276\326\260\266\275\343#>>mT\337\275\326\201\210\275\262\256\004\276\272WU\276\377O\203\275\325f\230\275X\375\013\276\311\316:\274\2124\362\274\325\320\212=\317\277\271\275\323}#>\320\036d<\002\023T>\217\031#<O\366\344\275\324\344c\276[_\265\275Q$+\275\240\277\304=\000\224\017=\373\311\231>?\014\374<L\244\251\275\037\225\370=&\000\331=\026\350\205=\333I\222\274\330\231\"\275\3402\031\276\301Of\275\314}}\275.\206p<\032~\000=\370EL\275\324\236\357\275(N\276=k<\346=/\273\246\274\236+\223\275\364^\036\275\010\243\237;.\241\226\275:\014}\275.\005\007>\007\023\033\276j1\251=X\343\204\2765\366\036\275f\262\331\274O\376\230<\202K]\275\336\361\243=Z/\020>\370\001S\275RH~\275|\000\376;\024\246~=\364\\\314=\211x/\275\306/I>\236\017\374<\030\202b=\207\332i=I\373\206\275\336\252*\275\356\010\204><\312\021\276\346\200c\276T\367\253\275\256\240\301\275\000G\266\275\213\234\035>\331\206\316<R\0309>\246\366\000\2756O\361\2754Q?\275\373\213,=\242\"\024\275(4\203=b\373\n\2758\221B>\241\336\372=\351\217Z\276\336Qh=\215\000\210\276\2249\322=\341\014E=\334X\320<\253\357\">@FC\275\276\034V\275>\315`=\333\026^=O\325a<\2241\353=0rW=\025\355_\276\333J\036\275U\252\350\274\236\304\023=\027\377\204=\'\211\"\276\374\372\006\275\003G\021=\253\345\003\276\206nR\2750\247\n\276v\224\303=\213\367G=\234\265b\275Q2\330\273Z\252\317\275\022\270H\274=\250\034<\322k\315\274\343EN\275\204\343\332\275\274\346\223\275\0162D=\"\225}\276*\251q=\231\266\213\274\330:\302\275t<\323=N/2;\207\200\250\275f|\254\274r\342\217\273\325\373r=G+\204\273\313\362y\275\3139\336\275\254\304\023=8\337\225\274\025\335\371\274~\356\031\276\325\306\263=/i\361=\327\305\320\2757]\031\276\317)w=\340\320\252\275\377e\020\274I\374t=\234o\030\276q6\353\275\234s\024\276\254I\227\274&\026\304=\034<]\2760\311\222\274/P\310\275E\242\302\275\033\373\205\274e\216g\275\266\025\227\274\366\257\240\275\250\271\233<W\226\023\274\261nx\275\322q\t>\272\030\177\275O\177\247\273GM\264\275\363v9=W\226s>\250*\034>\263\202\230\275\254T\031>\017\233<<\333J\205=^\224\306;\000J\014\276\210\312\351<\201*\034=\323L\337<\206\244J>\343s\257=81\"=54s=v\347\227<\304F\322\275\362\t\200\275R\2539=\"\351L>(\230\234\275&\212\321<d+\004=v1\234=\241i\226=\034\363%\276@#\374\273\223\220i=\366\263\017=>&\200<b7&\274\304\240S=M\346\344\275\367\373\267<\253\243Q=\213\220B\275%8]<l\235\200\275\tN\365=v\031\260\2748\003\200<\261\240]<\354\020\'\276\n\232Z>\331\365\263<I\321\223=\016\353\025\275\307\241.>\377y;>\330\230\305=G\nv>P/,<\240\003]=\034A\026=P*\246\275\314I5\275\330\202\207\274\247\013k\276\377\303S>\311\006\004>\363>\305=\\\247|\275\302\263I\276\313\323\263=\3763\343=\236\017J\274\033\337v<\020J\226\275]U\004\276\221,\317\274\010G%\276*,\242\274\270\205\337=\026P\221<\374\2266<\246&\253="
      }
    }
  }
}
node {
  name: "mapping_block/w3/read"
  op: "Identity"
  input: "mapping_block/w3"
  attr {
    key: "T"
    value {
      type: DT_FLOAT
    }
  }
  attr {
    key: "_class"
    value {
      list {
        s: "loc:@mapping_block/w3"
      }
    }
  }
}
node {
  name: "mapping_block/b3"
  op: "Const"
  attr {
    key: "dtype"
    value {
      type: DT_FLOAT
    }
  }
  attr {
    key: "value"
    value {
      tensor {
        dtype: DT_FLOAT
        tensor_shape {
          dim {
            size: 12
          }
        }
        tensor_content: "&,\225=\241\327\222\276\317o\266=\001\r\302=\360\351l<X3\207=J\337\202=:\311K:\022~\321\275|\233&=\016\321\334\275`.\316\274"
      }
    }
  }
}
node {
  name: "mapping_block/b3/read"
  op: "Identity"
  input: "mapping_block/b3"
  attr {
    key: "T"
    value {
      type: DT_FLOAT
    }
  }
  attr {
    key: "_class"
    value {
      list {
        s: "loc:@mapping_block/b3"
      }
    }
  }
}
node {
  name: "mapping_block/Conv2D"
  op: "Conv2D"
  input: "shrinking_block/BiasAdd"
  input: "mapping_block/w3/read"
  attr {
    key: "T"
    value {
      type: DT_FLOAT
    }
  }
  attr {
    key: "data_format"
    value {
      s: "NHWC"
    }
  }
  attr {
    key: "dilations"
    value {
      list {
        i: 1
        i: 1
        i: 1
        i: 1
      }
    }
  }
  attr {
    key: "padding"
    value {
      s: "SAME"
    }
  }
  attr {
    key: "strides"
    value {
      list {
        i: 1
        i: 1
        i: 1
        i: 1
      }
    }
  }
  attr {
    key: "use_cudnn_on_gpu"
    value {
      b: true
    }
  }
}
node {
  name: "mapping_block/BiasAdd"
  op: "BiasAdd"
  input: "mapping_block/Conv2D"
  input: "mapping_block/b3/read"
  attr {
    key: "T"
    value {
      type: DT_FLOAT
    }
  }
  attr {
    key: "data_format"
    value {
      s: "NHWC"
    }
  }
}
node {
  name: "mapping_block/w4"
  op: "Const"
  attr {
    key: "dtype"
    value {
      type: DT_FLOAT
    }
  }
  attr {
    key: "value"
    value {
      tensor {
        dtype: DT_FLOAT
        tensor_shape {
          dim {
            size: 3
          }
          dim {
            size: 3
          }
          dim {
            size: 12
          }
          dim {
            size: 12
          }
        }
        tensor_content: "2\307\345=a4*=\0231\224\275\n0\027=!\260\201=\213{T=\272\204)<\200\263\033>K\327\267\273\347e\340=\317\365\237<^\235R\276\260\256\245=\341z\030=O\024b\274\312\317\370<\005\350\304\275/\256\312<\203i\315\275\206\376\216\273!q\002\275H\2139=\207*\215<Y\014\240<h\314\013\275n\223\306=s\231\317\274\031h\006>\326\352S\275\000Rn\275\203J!\274\021/^\275\237t\326\275\276e\006>\306cO\276E\'\236\275\314\331\272=\313?\341\275\255:\302\275\300\227%>\300@\014\276\371\242\036=\244E\000\276\267\3416>Y)\016=\337G\316=}\311\217\275\311\0067\276t,\271\274\343Rk\275`K+\276\271\255 \275\254\370\247\275S[y\273KB\352=\207`\027\275\017i\205\275\364f\223\275\002T\352<\257=\262=\342\221\002\276%S\352=\272\204\230\275c\222r\274\201\217\353\275\375\352\223=\342\031\255\275_\244\321\275\206d\355\273\255\262\352\275\202H,=r\376\237=\024\321\213\275\005\304V\276\202\026\221\275\262e\210=\367\255\236=\334\235S\275\371\214\206=\253\035\204\275\322A\247\275lC\304=\323\276\002\274[\316\367=U\177\204\275\356\030\212\276\222\246\346\275Js\032\274\335\342\030=\271QF\275\026\377\323\275J\246\345\273\366\213\332\274\006K/\275\230S\302\2746\200\227;\t\205\017\276y\216N\276\370t\264<\245\n\362<\262R\314;\205/\321=\036Q,\275M\373\n\276\3160\312\275 \275 \276-\302\014=R\004\027\275@\030\205=\301\r\306\275C\256\264\273)\r\315;D\030r\276x\271\247\275\262\025\220\275:4\222\274H;\361\275\006B*=n\001\010\275\215bI\2753f\007\276+\263\235=\300\345\027=\333\'g=k\331\r\276!\257\005\276\'\201\337=\217\010\371=\317\004c>\367\200\203\275%l\n<\231\354\234\275s\274\345=\030mS=\207\304Y\275\220I\006>\335\326\215:h\2255=\366\327M>\034={=\215!0\276\017Q\231=\350\024\003\276\033sg=\261\306\211=\260d,=Q\235\212\276\005o\004>\315^\024\275\300\023<\276\264\202b\274U*\021\276\241\247\004=\323r,\276Ro\232<\315)b\275\2520\371\275\\\3675\275\004\252p=Gu\036>Z\356h\275\236\224\333=\307\366y\274\222\255p=\320\000\005\276o\210P>]\226a<y\377\220\276\346gP=\035\3209>\365\251\331\274y\t\334=\301u\337=\260\332\306=\211\251\272\275\2133K\275\031\266\227=\363\246[\275:r\340\275\207:#\274%\030\272\275:\t5\276\234\324E\276z\307\350=\330\363\330=\236\206\342\274O\305\367=&\371\334\275\371F?\276\313\253\372\275#\230N\2759\351<<\037Q\301\275p\323\363<K\250r>;\223\204\275f\3536\275\277\203\210<\014\260\276\275\324T\301<$E\273\275\325\023\033>\275\227a\2752\030\026>}\002`\274e\260\262=?\230\334=\275\201\243==\007\247=\321L\254=\207wq\276~\373\223=\327I\327=\3213\214<\256N\304=\274$\370=\341\037\202\275\035<\017=\352\321\016\276a\242@\275I\366\026>\024\r\026\276\212\365\030\275\025\362\230\275\263\212\237=F\323\235\275\261U\301\275\205\224\027\276\023\300\346=\303\333\312\272\030\262n\275\265=\357\275\030\303\266\275l.L\275\024\300\265\275U\373\353\274\3471\317<P\365\353<[h\373=\331i\245=\350K\272=\300t\260\275\254\317c=%&\010=\377\200k>\326\311\313\275\321g^\275\226\215\210>\032E\234\275\333\276\322\275\241\367I\275\354\260\271\275m\236\211\275\246\304\017\276\263\345\334=;\233\206<k\323\224<\035+\n\275\373\025\227\275\274\250\277\274\314\007A>\262\013\"\276\013\306\265:o\033\254\275\037\010\202\274J\010\253\275\341\031\327\275^q\374\273\263\357U\275\343\235\017<\370\000\205=\031\270\233=\336%\247\276\'\326\032=\206-\254=\235Q,=\350\204\310;Bd\214=b\371\263\275\314\367.=\243]W\275\260KW\275`M\222>\006\253b\275\250\352\326\274w\026\367\274\367\204:=&\025\355\275\027\321\252\276p\270V\276\177~[>\333F\347=f\253Q\276\377\366y\276.\223\237\275\251\373\330\275\210\356\021\276HI\177>\303,\n>\323m\314=p\237\245=f\233E\2764\224\202\275\276V\310<vu\270;\2219+<\200\372\276=\235\317C\276\232\t\245=(\332\276=\302\310\000\275\205_>\275(\203\013>\242S\260:\\\271/\276\313\276\021\274c\351A<=\006\330\274R\217\313=\330\222O:\343\255\210<\3739>\276KF\000\276E;\324\274\350\366\237\274\307v\210\274\370\343\204=f\311\245\275\033|\263=7~\255\275\343`\030>\006v\325\275z\006\005>\212\225n;\376\020+;_I\227=\351\261\220=\332\3553>t\332\221\274I5\265<\034\277u\276Q\221\203\275c\021/=\3161\247\275\205D\274;\024\264\316\275gj\320=+h\323\275\0278%\274\235\\\357=\222y \275VHE\275\207\024\213\273\351\016\333=\355\275Z\276\006\325\325<\374\274\203\273<~_\273\036\264\274\275x\324~<k\367\207=\366\222\332\274\216\020\244=\">\214\274p\330\t\276\315\035\247=\\\200\274\274\323\312\275=a\001$\275\236w\000=?3\027\274\255\235\224=\352\335\323<v\226\017\275\224\207\263\275\243\313\237\275?\353>=\334w\243=%\217\241\275\335\027\253=R\'?\275@\006\360\275\"\002\024=\032\353\"\275\177l\'=E\364\312\275\252#!>P\253\211\275\327xF\276u\243\016=\220\016e<\260\260\216\275\233j\005>\356\371\341=\\b\321=\262\244\332=n\352\333=\230\275\034=\231\"m=[.\207;AbJ\275\273`w\275\204}4\276u\246\206=\354\300\347\275\266C\310<\354\021z\275\t\2551=\374\277\257\275\345\343\301\275\311\026\031\276\203\234\r=\232\335L\274\326>\007\276q\037\026=\312\304\216\275s\267\013=\240\206\217=\331\242E>S\2259\276\354W\361=\0140\021>\260\203e=\225V\240=J\366&\276\234J\233=}\343\014=y\037\311\275!\030\375=\005\032\267=8,\265<\300W\\=\204\274\344\275j\367\226\275EtA<\356\223\006\276\263n\304=Kf\030>\333\306.>\377\231\346\276\275[y>\351B\020\276\032\034\372\273a\373!\276\211\023><\307\007\320\275\226\200v=\312A\305\275\224I\023\275\260C\353=h\2011\276I[\360=>\325+>\177x\364\273;\334C\275\236\013\360\274C\321Q\274;e\204=\310\347-\275\252\265\235=\007\024\014\2766B\274\275riC\276P\343\020<P\tm\275\236Y\270\274\337\333f>\314M\252=\017\345\217\275Z\016\343<E\215^>\262)\203\276\302\315\273\275\326\343J\275\226\322\307=\264\010x\275\360\233E=j%\216\276&st=w\017\224\275\264\376\225=\221D6>\230.M>\003R\352\275\024\236\014\275\343\316\242=\373z\206=\344\311+>s\354\353\275\024j\254;wW\272\275\270\266\030>\361Z\245\275\014y\341\2741\377x\274\302\352\317=Jc\272=\310\205\001\275!\005\241=\rM\001\273\036\251\212\276\303\300\252\275\354\341\205=\255e\206=h_\273\275\342\346\254=\031\037M>\231\303_\276\224\302\376<[\271\270<\363\236C>\343\271 \276\205%\036=\367M#\276\301\261\215=\336\312H\275\205\2249<\034\207=>.H\230=\031\306\324=\232p\364=;|\240\275\203\360\252=%C[=\377\301n\276\245\353\305=)\307\230\275\276\274\322\274\304#\314=\354;\t\273\275\013\307\275\223\341\220=\333C\014<\343\3008\276\207\022\364=\335\326\253\275\274\320\r>\271\007:>\017\230\221<\202\227\227<i\0162\274\002\021G\276\326\376\305\275\331zi\275;\016J=F\210\001\276\"\262B\276\375\212Y\275\230\2253\276\027HA=\334AP=\032\301\326=\225\253\242<\345\3159\275\252\263\226\276\243\361\023\275\251\255\t\276\017\177\321<H~3\275u\235\000\276Ao\342\274\033\013\375\274\220\035\267\275\340]\342\275\331-9<Y\202\010>`)\037<_6W\275\273,\225>PC\213\274/!\r\276\362p\212\275\216\327^=\rM\304\274\200\371\023\273I\t\320\275\256]L\272\\\"L>.\035\023>\257\350\032\276\254\206j=\305E\264\276\013\274\327=\341\321\272\275\257^(>\032\237e\276)\000?=\206\036\321=K\275\204\275{\340L\276\256\3768\274l|\033\274+\366\002=jL+\276[\236\307\275;\002\210\276\366\016\017\276\233\276V\276\260\252\301=7V\226=N\377\346\275\2333Q\276\326\"\373\275\250\337\337\275\322#\374\275\332}\333\275\002\372*\276\320\215\254<@\260\254=\233\225\335\275\230q\033\275\377;\n\276J\3271>\212\330\">\2548K\275\014|{\276\000\371;>\373\222\252\274\007\373B\276b\3610>\227\360u\276B-\237<T\201\375\275\261V\017> \2271\276\300\242\037\275\202\017X\276\227\273\021>\254s\033>\200d\240<q\227\200\276(\375,\276\256\217\321;\263\343\232=Jo\224>\030F\002\276\206]\013\276\236\201\205=\326\231\234\275e\231\007=\242\310H\276bi.=\2050\212\275\225\364\215=\360\305\\>&z\272=khI=\356@\360\275He\230\273\360\315x>~#\365<w\261\251\276\236\344e\275\251L\371\275\'&\274\272ZLJ>\306\032\204\2742~e<\255.P\276!\270\276>\312\376A\276\t<\264\275\310z`>L\022_=\377\376\267\275\251Em>\331Eu=\033\377\250\276Q\377 >|IY\276|\324T=7\251\023>\027\2349=\335\325\202>z|\234<h\352\254=\272\251\334=\320=H\2761C\007\276\000\236*>:\"\022>\272\371\224<\244\004\371\275\252\235E\276\366\370\257\275\366\2000\276\255l\353\276\260\031N=\204\213s\275\336l4\276\355\237\332=\237\3652>\247\007\376=\352\300\000\276\332\343o>\377\252\373\275X\224\022\276\321aX=S\246\357\275\263\223\273=\372\313\340\275\326\242\266\275++-\276\226_\232=\267D#\276\230\325\262=x!\253=\361\327\"\275\311\327\263\275D2?>\203=\307\275\227\004\333\275f\303\320=a\350\301\275\265\023>\274\224N\331=\370*N=\336\274\201=\3456e\276\346\033,=\354b\031\276\255\201\252<\343\240\377\2758\272\345=gh\211<\237\345\026>@\006\r\276_vo\276\202g3;\267N\\=2?\020\2760(C\276\256{\242\275\325OS\276v=\021=\224^\377;\021\006\\=\232\017\343=\243\227:=icG>\361\024P>#w\273\2755o7=\214?q>\010\\\312\2738\2061=\\\002\302\275Ok\245\275\033\021\013>\004}K=\231\377\007\273\0228\201=\237&`=$\350\255\275\037\252v\275\332\243\360:\010\007%\276\322X\203\274\002O2\276\034\332$=(\276\251\273\027\261A>\3755\223=\330\033\373\274\303\245U=\'\204\363\274\246\016\335\274\265\013\022;\245V\334=~\234\335=;\321R<i\271\177=.\315K\275\307\353\222\275\302F\003\276\323=\212\275\r\210\346\274\347\303\220\273J\027\213\275\030\324\211\275\274\356\310\275\313\224\250=\\4a\276M5\311=\203(\351<`\243\200\274\357\363\376\275[\r$\276\365y%>t\032z\276g\320Z\273p\365\303<\343*U=\3001M=\033\250\263\275C\002v=j\330\002\2763\033C=\334\013\201=Hx\242\275J\336\213=\213\213\277\273\333\236\340<\rB\315\275K\3255>\216\376\346\274[\254h>&S\020\276o\360\341=\377\200\035=hm\271\275\306\254.>\024\366\316\274\274w\2129R(\001\275l\367\355\272R\360Z=\213\325\366=\224z\333=\2059\331\275\037>t\276X\342\031>W%\215=e%1\276\023\275\227\274\353/6\275\374&\327\274r/\306\275\222\247\007\275\353\224y\275J\253!\271\217\202\247\275\003v3\276\332\213\005\276>s\201\275u\336\230\275\301\302\021\276\221C\233<\241\301\240;\357\351\313\274\273N\375=\202\177\024>\344\000\333\275|\"\t\275\245\030h\275\230 \205=U\037\235\276\004\355f>\345\035\025\275\016\003\230<\333\316\250<\214\0245>\016\242t\276\227\243\006>\214\353T=Eo\007\276\344\250%>ND\332\2750x\213=\323l\360=\371P,=\244\227\312<\212?\t\275\331\327\n\275U\343\241\276\230\333\216\275*t\362\274_\315\016\274\023\254u=\254k\216=\332\236G<\344u\213\276[\276\004>2\342\346\274\202\025\221\273L\316\205\272\347\263K<\005\3256\275\003\250\372<\324/\240=\320\363\306=c:\255\274@\341\375=\211\005\231<j\006B\275m\032\364=&+\030;Ik\371=\021kA<\177\027\030=\215\013\246=\027%B;S\252\307\275]\177\n\276nW_\275K\250\355=]|\225=b\335X=S\004=\275 \301\350=\270w)\276\362\016\316;nQ\r\276\362q\201\274\227\332\025= \222Z\274!d\257=\177\203\n>\3166\013=\343\316\361\275\3319\344=7\222:=\272\365\020\274\227u\237\273;]\363<\010 \235=\334W\367\273\036\322\222\275\225aw=\335\335\037>\325\310)\275\004)\350;\304\003\034>\332\"\234\275\254\237\334\274\254;Z<\367\244\217=P\330\221=,\335\212\274\247\007\355=\353\305\020>v\216\026\276\321\204\246\273X\354\017=_:\243\275\340rS\275\355\244\350\274\027\336[\276\330\316\014\276\010\355\001>\377\016\232\274/\375\377<\025\251\221\275:vG\276\34463\276\3436\323;\342c\205<\256\275\311\275\2436\201\274\267\2501=>F&<r\305\263=>Wm=Z<\201\275()*\275a\2512\275u\036\t>\370\323\327=If5>/\350\006\276<\317M\275\200k\375=\0024:=\230(\316\275\321Y\026\276K<\246<v\216+>\366\366\354=\2772\320=\265k\007<g2\031\275e\303P=\331mC\275(\272\320<\271,\217:\305>\207;)g\310\275\003\361\245\2742b\321=f\004\316=O\037==\361\330P>K_1\275\367\004@\276\333J\360\273\007\244d\276\211\032\304=T\034\355<\226hx\273q\331\377<M\216\221\275\007yI<\'\261q\2732\253[=;\274\023\276\224e\265\275\232\315H\274\240\361\360<\210`o<Y\357\362=\364Ey=<D\343;(\3273=\367\250\371<N3[<XF7>\306\272i\275\003(\353<\362\t\202\275\224jx=PRr\2759n-\274\345l\250<U\373\237\276T\316\260\275\244\"G>`Ln\274*3M\276\234e\323=\t\272\002>\245\270\t=?O\037\276\313\313N=\377\320\r\276\364s\213=\037\350C\275\311dp\275>\"w\276\342\361;\276\014\303R=\264\247\227=9\232\007\276sN\256\274\303\301\370=J\274\001\275\3573\032\276\361\202\354=\024\243 >\271\255\264=\227\033S<\357g*\276\021\273\035\274\nI\n\276\262\216&=^B\273=\275?\260\274\213\035\275=\233\303\307\274\356\033\316=\306\0103=\232\227!\276\312y\347<\252\3360\2765\265[>\343\333\334=6\326\004\275\364\354\234=f\n><;x\301\275>Q\372\275G\305\n\276g\207\r<\350\013\377\275\253\0019>\356\315\250=\323Q\033\276\3144\212\274S\"\002>\2172\007\276\231\375\231:z\357u=\000Z1>\210\205G\276\202d\316=\354\335m\275\t\226`\276H:\240=\373D\310=H\364;>\211\336\236=\245Wx;\357\002\264\275#\323\004>\210\224#=\345\367m\276rW\021\276\036\374f\275U\033\262<\303y&>\337\362b=9y\232>T\035C\275\014\3228=\345\313\311\274k^t\275\226\226\257=>\264\271=\027\376\374\274\036m\200\275\245B\"\275T\243\003>\250>\024\276\257p\240\275\350\006D=\n\306\017\276\"\242\024\276\317:\232\275$\303\267=\246`\271=|\253\340=\023\007\326=\020\216(>\253\201\204<X\032\007\276\265\014\214\275\221\200\026;\264 \013>P\317\013\274\316%\361<\224\257\321\274\233\320\031>ID$>\210)h\275)\020\013>\376\r\322\275\233[\215\276\220\247\267\276Q?\303=\255\026\262=\336\024#\274\026w\205\275YKC\275\037\226\322\275\213~\237\274\356vM\275\243\207\225\274\335\002\255=q\2647\275\333\343{\274\273\331\017=R!Z=\033\021\324<\373\332I\275\336\037D=\005y4\276l\371\350\275\001S.\276\232z\311=\216\000\325<\037\361\021\276!\230\310\275\264\227\264<\343V\263\272p3\353\2736\371k=\"\234\320\272j\230a=\006\354\375\275\027\354t\275^\025\t\276 \313\324\275\022{\336<\242\231\305<\345\367\266\275\214\003\036\275\250\266\265\275\007\0237<\335\207\005<\3675L\276\250\\\356\274\311\265]<q|O>(\362\302=(\312\236\276:\315D=Y(\223=T\362\226\275\331\357i\274\345j7\275\2557\177<6\203\004\275\270\367\322\275\2010j;\306\r\007>\244\263!=(\257w<\025\210\204<\372bx=KU\031<-Ly\273C\220X>\"\303_<a\307\367\275\241>\257\275\357\"\353=\363\377\242\275\262u\332<I2;\276\257q\301=\233\264c\275\277I\372\275~\322\333\274\2615\307=n\337\275\274II\247=\271\232<=\030C\002\276\037\305\205\275\245Q`\274\316\n7=d\357\200\275\300\337\221=\020\267\237=\022\251\340<\024\266\207\276\010\206\332<\021\002\202\276\332\'\024\274\007\232\025>\371\320\256=\314\252\364=\223\336\244\275\025\333\350\275\343\235\003\275$J\020>\376gT\276P\2535\275$\222\201<u\373$=.\315\035=\257\356{=\261;\026=\332\352\347\274\003\250\t\276\270\035\232=Jq\263\275\361\252A=\352\356\311\274\037\264\t\275\341\\ <\006\360X\276\254\271@>\243\301\367=\337\026\212\275dp\264\273\215@\222\275\321\256\237=\036\314\353\273\376\273i\275\r\203\037=\371\204\025\274\340\270D\274\366\330\317\275\356CD>\346y8>\251s\206=5\276|=\204\242\177=\355X\370<\253(\277\275O\023\n\275W\272l\275r}6<C\234\235=\212\335_\276<h\377<\264\274\346;\353-\376\274W\317\254=\217_\026>\324@\354\275\203\264\344\275[\250S<\314Y\323\275\263\223\212=\362\223\004\275\235o\314<?\310\307<Zs\031=\r\375S\275Y\320\302\275\236K\203\275\322\037\255\275mWs\275\331\235\222\275x 3\274{\360\343\273=\357=\275\230\266\224\2752_j\274\254\005A\275\302\240\245=(\212\203\275v\373\212=\335\226\363\275\207L\345="
      }
    }
  }
}
node {
  name: "mapping_block/w4/read"
  op: "Identity"
  input: "mapping_block/w4"
  attr {
    key: "T"
    value {
      type: DT_FLOAT
    }
  }
  attr {
    key: "_class"
    value {
      list {
        s: "loc:@mapping_block/w4"
      }
    }
  }
}
node {
  name: "mapping_block/b4"
  op: "Const"
  attr {
    key: "dtype"
    value {
      type: DT_FLOAT
    }
  }
  attr {
    key: "value"
    value {
      tensor {
        dtype: DT_FLOAT
        tensor_shape {
          dim {
            size: 12
          }
        }
        tensor_content: "Ry\221\274\322w\201\274\0323\233\274\\\'\252\274\216i\271\275\'L&=\014\203J\275\"\274J=\251\275\021\275B)\017=\t\"\003=\260\3326\274"
      }
    }
  }
}
node {
  name: "mapping_block/b4/read"
  op: "Identity"
  input: "mapping_block/b4"
  attr {
    key: "T"
    value {
      type: DT_FLOAT
    }
  }
  attr {
    key: "_class"
    value {
      list {
        s: "loc:@mapping_block/b4"
      }
    }
  }
}
node {
  name: "mapping_block/alpha4"
  op: "Const"
  attr {
    key: "dtype"
    value {
      type: DT_FLOAT
    }
  }
  attr {
    key: "value"
    value {
      tensor {
        dtype: DT_FLOAT
        tensor_shape {
          dim {
            size: 12
          }
        }
        tensor_content: "2\244\233=\"O\201<\343<3?o\226\367>!-\233?\031\365\252\276\341\3306>vs\027?\236\315]>\335Y\007>\022-\216>\016aH>"
      }
    }
  }
}
node {
  name: "mapping_block/alpha4/read"
  op: "Identity"
  input: "mapping_block/alpha4"
  attr {
    key: "T"
    value {
      type: DT_FLOAT
    }
  }
  attr {
    key: "_class"
    value {
      list {
        s: "loc:@mapping_block/alpha4"
      }
    }
  }
}
node {
  name: "mapping_block/Relu"
  op: "Relu"
  input: "mapping_block/BiasAdd"
  attr {
    key: "T"
    value {
      type: DT_FLOAT
    }
  }
}
node {
  name: "mapping_block/Neg"
  op: "Neg"
  input: "mapping_block/BiasAdd"
  attr {
    key: "T"
    value {
      type: DT_FLOAT
    }
  }
}
node {
  name: "mapping_block/Relu_1"
  op: "Relu"
  input: "mapping_block/Neg"
  attr {
    key: "T"
    value {
      type: DT_FLOAT
    }
  }
}
node {
  name: "mapping_block/mul"
  op: "Mul"
  input: "mapping_block/alpha4/read"
  input: "mapping_block/Relu_1"
  attr {
    key: "T"
    value {
      type: DT_FLOAT
    }
  }
}
node {
  name: "mapping_block/sub"
  op: "Sub"
  input: "mapping_block/Relu"
  input: "mapping_block/mul"
  attr {
    key: "T"
    value {
      type: DT_FLOAT
    }
  }
}
node {
  name: "mapping_block/Conv2D_1"
  op: "Conv2D"
  input: "mapping_block/sub"
  input: "mapping_block/w4/read"
  attr {
    key: "T"
    value {
      type: DT_FLOAT
    }
  }
  attr {
    key: "data_format"
    value {
      s: "NHWC"
    }
  }
  attr {
    key: "dilations"
    value {
      list {
        i: 1
        i: 1
        i: 1
        i: 1
      }
    }
  }
  attr {
    key: "padding"
    value {
      s: "SAME"
    }
  }
  attr {
    key: "strides"
    value {
      list {
        i: 1
        i: 1
        i: 1
        i: 1
      }
    }
  }
  attr {
    key: "use_cudnn_on_gpu"
    value {
      b: true
    }
  }
}
node {
  name: "mapping_block/BiasAdd_1"
  op: "BiasAdd"
  input: "mapping_block/Conv2D_1"
  input: "mapping_block/b4/read"
  attr {
    key: "T"
    value {
      type: DT_FLOAT
    }
  }
  attr {
    key: "data_format"
    value {
      s: "NHWC"
    }
  }
}
node {
  name: "mapping_block/w5"
  op: "Const"
  attr {
    key: "dtype"
    value {
      type: DT_FLOAT
    }
  }
  attr {
    key: "value"
    value {
      tensor {
        dtype: DT_FLOAT
        tensor_shape {
          dim {
            size: 3
          }
          dim {
            size: 3
          }
          dim {
            size: 12
          }
          dim {
            size: 12
          }
        }
        tensor_content: "\027\360\237\274T\331\233=\201Ic\275\247\371\005=\027\251\'\276\017g\023\276+\324\251\273\005/\273\275\351PD>\036\\\233=\235\315\'\276<\334b\275\237\207T\274\005\236\366=\354\270\272=\3773r\276l\352\003\275\210u\310\274\345K\313\2756\310\026>i|\016=;\327\353\274\253K\022;y\325\317<\215\252\330\273\203|&\276JE\246<8E\370\274\203\036\275<\242`\036\276\272t\205=Z\300\254\275\025\361\244<\244+\002>\330\255*;BA\260\274\245\026\275=6\t\014< \235v=\200\253-\276\204\235\352=\360\003\244\273\242\240\325\274\326\263\370\271`!\216=\332a\204\273~r1=Y\033W=\274\003\177=\223q\016>\251\2040\274\264h\250=\005?\014\276\316Y\t>xE)\276r\"A\275\264#\035>\200+\027>\216\342M\275\346\330M<b\266\">\002\247\271=|\221\256\275\322\024\201=\215\213\273\2746\003n<U\316w\27439I\275E\321\337<Q2\327=l\000\225\274\322\373\'=\320\032T=\003\300\254\275\314\216@\275(\2235\275\'\367\244=\010\024\235=u\352\376<\016K\032>_0\305=\273\261\260\275\3253\030\275|\213\376\271M\312l\273G\321~\275.\261\204\275\237\350%>\315\377\035\275\310\256\034=\317\371\231=\200\271\200\2756Ba\275U)\373\274\340\010\204\275\2624\370<\204\251u=4_\215=\277\214\231\272\246\321\306=OZ~\275\235Z\235\274\337\024\352<<\024\251=r\313\315=\330Z\331\275\3057\261\275\r^\357<\213:\n\276$\253\206<\007\331\333=\326\270\371=\237z\213\275\371\006\377<\351\201\217\275}\302\223\275$\215\334<\330\206N=\3467\264=\337\r\000\2751\1775\276\316\265%<\201\021A=\244\221(=|\016\234\274xM\344=\264\326\231=\227\351\206\276\216\211\034\275\222<z\275\341\227\201=\362|\002\275\251\337\031=\355t\213=q\260\377\275s0\360=LX,>\\\215-\275\357\344~<!\370\335;\271\204\272\275+\372z\275\020q{\275\364 \337=K\246!\276+\277\177\275\r\243L\274b`>=c\010\035=\034\235\320<[\017\330=\205\216\027<n\271\225\274\302\0052\275-\364*\274\237\212\027<\251B\003\276\337\317\264=\252e\324\275Z\211j=\003I \275\262\n\316\274\031X\206<\241\310\323\274?\220\033=\224\277\200=V\307o<\363-0=K/T<,0\034=7\236\007\275\261\274!=\'<\025>\263\266e\276\017R%=q\033\235\275\021\324\334\275mZ\265=?\262\273\275g\263\353<5-\016\276\t\1778\276EA@<\234\275\020\276\025\0016>\350\2673=\321x\227=\006\326\022>f\211S\276\316k\265\275K5\207\275\224B\202=3\223U\275h\322t\276\016::<X(\346;@\007\270\273 \340H>|\327\312=\342H-=\024\312\303=\022\361\365=g\005\224=\206\353\236=\325\260-:+i\223=\333\302\241=\2637\252\274\242\rq>R\260\314<\213z\316=M\320\324\274\353n}=\021\315 =\010\302\221=\0230\332\274\000\276\033\276\204\205\303\275S9\330\274\017\204?\276\205\230\027\276\\\347\310=\26347\276T\337\025\276K\202\231\275\273\302G\275\226\310*>\017\334~=uB\022>\260\014\373\274\342\343\224\2754\317\013>!\220\273\275\t\264\214<\230CI=\247Q\241\274\'\270;>\220\244=\275-t\201\275K\001<\275\300\024\t\276\341\352\013\2755@\251\273\272\005@<\266\243E>\005:b=\001\247\364<\255\306\024\276\344r>>H\330Z\276\024\336\346=G\233\265\273#\324n\276@\357*\276\236$F=\010D\215;$\2765>\375\346\034\275\016\014\335<\361\271\326\275\312vP=\273w<;z\025^>w\013\200<\334-\325\276)~?\276w2\200=y\210\347\275%U\004>Q\010\367\273\247\203\364\275Fh\033>Ds\356=\200\016\001\276\231\016\306\275S*\\=+\340\223>~P`=\022\032\353\274r\333T\274y^\274<\304\330l\275\263~Z>\257\307\304\273\245\263\231=\240\000U\2750\302\014>\232\373\314\275\307/\231<3n\r>\t\023\300\274\323*$\276\312\353\315\275\230\357\322\275\340}\211\275;\223\322=Y\033\003=\361t\345\275n\023?\276~\231#=\035@\267=\265d\336\274LJP\275\362\270\260\274A\202\304\275\230\243\017=\3617 >\310\303\014\275\215Z\203\275w\263\306<\212\236\270\275\217+\025\276}\312R\275\337\320\t=\212\353t\274\255\014C\274\006\035\013=\276\221\007\276\215\227R\2751W\032=$\254 <#\343\277\273Ry\007<\275\310\260\274\t\321\226\275\341\303\032>zM\206=\206\311n\275b\021\200\274\276p\231\274!\371\360<\333\230\037<\324\336\033>\023G\001>\026\203S=i\221\004=v\342\\\273U8\270\273H\275\226=\027\021\037\276\\\321W=\354\335\230<i\346\025\275D6\200\274\257LJ\276\367\025Z\276\306\246>\276\236T#=\210%^\275(23\274]~S<F\323\021\275\025F\267=\303\207y<=\365+\275\035\317\324<\312\367\306=\023\tP\275\033\020$\275=\273\275<9z$\276\025\263\203=\035B\024;Q*\021\275\256\377\303\274\227\331\n>\350ht\275`8\2665\010\266\033>\212\371`>\304\006 =\033\227}=\271\257n\276\376b\006>7\275\347=\364\331E\276\260\311\010>k\261\023\274f\217\333\275\002\344G\275\313\312\344\274\002=\300\275\325\256\343=~%\377<\036A\031\274H\271B=A$B\275\213{\324\274~p\005>\026\217\366\274^\225\002>NYB\276G\206\020\276\306/9\275\335\206\227\275$\333u\275\372\315\237=ml\247;\337X\000>\255\031\351\275F\352\200=\016q\032;\343\030I\274\233\360\025>\007\272I\276\361\364\032\276\343\037\302\275\266&\000>m\022\177=C\036|=3PF\275\323\251\217=^G\237\275Ui\311<\306H\254=\264\232f\276\003\305\235\275\333H\367<\t\324\337=\'\204\357<z\0134=\355P/=l\271\311\275\004r&\274\317\237+>%GC>7\013\'\275[y\027\276\033\231\325\275\321x]=\317\355:\274\024\325\202<\r \025=\251\032\211=\353\230\005>Fb\333=)\263\020\276\3404\220=\370\212#\275B-\232\2765\362\014\2765K\223\274\316\025\257<\375\204\254\275]i\033\276\270!\234<Py\007>\024\2457=\241\322\361=\267\270 \276\213\251*\275\003@Z\276\t\177\347=J:&\276\016-\346<\035Q8\276h$\016\276\344\0211\276\034\253z>2-\016\275Ido\275\\V%\276\032A\375\275U_\377=\035\261p=\364P\330=\325\205#>)M8\274\332\261p=\244\026\212=F\371\204=A~r=$\210U=V\223\177\2750l\301=\004\'?\275\324\352c\273\302j\337\275\215s\251;V\246\016\274\344(\007\276\205\371)=\032Ao\275\274\213\274=\267\234\200=\373Q\001=\255\030w=\002\013\347=\003\260\t\276n\305C\276\362g\024\275\352M\340=\307\342h\276\265\236\005>\013\003D\275 \002K>\007 \305=\374ju>\273\331\347\275\357\373\024\276+i\031\276\234\305)>sS\221\275\035P\002\276\'\272P\275\025PF\276\230\022\013>\252>\236\275\327\231&\275\245\343\305\275\372\276.=\260\276\037=\301\360c\275\023\214\367= \017\350\274\275\267\325=\235s\233=(\262\000\276\215\205,>\247Q\021\276\357\355w=\265k\312\274\205\264\241\274\264\036\371\2754\217\271\275\252\310P\274\362\327\031>\211\341#=\365\201\351=n\0134=\243\364\331<Wjr=\315\354q\273\3136&=A9\241\275:k\244=\204h\375=^J\270\275\357\200\377\274(\016\031=\004&\"=cc->\262J\032\275\370\0013\274\000\203\277\274*\022f<~\037\271=\014&\003\276\311\207\242>\252\301\014\276\\\370\032<\345%\031\276\2602\311\275\350I/>\304iE<\223\2579\273P\217G\275\316\034Q\275\217B\271=\024qr>\231\364\307<\270T\305=\376\236\346=\022b\270\273\322?\177\274yH\240=W&\310=6\224\000\276vn9;\316\022\264<A(,\274A{W\275~%\236=\3742m=\262\2020=1\227\375\275\357lQ;\210\262\211\275\277\2046=8\250/\276\305,a\276\034zH\276\343v4\274&\330\257\275\023\250+>Ko\251\275\377c\231=\327\322/>\276!\035\276QQb\275\315\235\255<e?8>$\313?>d\372\250\275\350@\320\275v\267\267\275\330\262\243=\343\361\254=\211\264\350\275\270\264\375;\262M`\276F\336\317\275\214\235->\031\337\357\274\313\225\257\275\243\364@\275\207\027>\275O\325\270\276\207\301\327<\375\031\003\276$l\222=\326\316>\275\276\013\032=\275\247\017>\3028!<\373A\202>`\302\206\275W3\324\276\256w.>&\230\300=\216\'\364\275\361\211\255=\311\000\370=\200\224\313<#\016\356\275\236^\201=\3463\r=\003\243\031\276\262\001\355\275\035\324\r\274Ng\223=\253\210\271\274\037W\321<}a\211<\316\326\316=X>\204=\276V\036\276`\0234\275\225\360\301=\362O\214<\202\030F\275\242\316\304=\271\335\312\275f\024`\276j\3152\275\331\337\371\275,\357\257>o\313Y\276\222#\373=Z\310z\276\244NB\274\t\016\317\275\365,\004\276\275<\030>u\221\021>\337\027$\276b\002,\276\210\307J\276\022\2720\276M\234P\275\335A2\274\340-\001=\263#\236\275\303\252H\275\0301\205=\002@\010\275\030\254\245\274\3765\203>A[\206>z\214\227\275\313\263_\276O\200\027>0A\250=e\263\213=F\331\272=\2758\373=\315\310\336\274\227\017\013>%\252\202>4\361=\276\035\027I>(\234r\276\330\344J=1\364\255=-\265\254\272N(\301\275\307\025\313=:\300\207<\017\000\317=g\243\326\274KuR>3\343s\276\014\035\032\274-\032\274=\266\265\002=\033\203L;\226\351y>@,f\275T\354\272\274\353g\013=\200\205\327\276\271\200\272\276Kb\002\275e#U>H8\221\276d\'\007\276Y\220\377=\333_\217\275\237\031\003\276\362\233\370<\310\3674=\256\354G>\247M\200>1\034m>N0\250\275\303 \002>\345\201\213=\'j\026\275\003\335\271\273\334\3158=\274\340S\275n\264\276=\246\t\303=Y;\325\275\256\201\200\275\221\262\205\275\245\234L=\334\210\024>\247A\272=^\266\"\276okV\276\257\375\227\273\227\020e\275~G\334=\326\200*>g\2101\271#\200=>>\3570<\205\016\315\275\266\2233\276\032\364\335\275\250\376\242\276t(\227=\035\035P\274v\316\030\276#3S\276D\354G>W\255\'<^\204\255\275%\352\313\275\244\265x\275\314\222\177\276\264\020\351\275\367\027m>3\334\216<\3542h=\2036\234=[\245\024\276\352\303)\276>>\252\275\373\010\302\275\363x\205\273$\2577\274\022\\a\275\266\335\374=\013Gb\275\377\321y=\263/E=\023\323!>\224\330Q>\216w\t\275\354T\336<\242^\025\276\034S\\\276\032\226\354\275\035\331\027=tt!\276\361%\365\275IUA=\256\307<\276\220J\001\276-Lg<gzR=2\202\007\276\257X\257<\353\301\346=\337GG\275R\177\335=N\211B>Q_\354<K\273V\276y\337\217=\333Ze\273E\3563\275c\ro\275\030\207\236=\361\274n>D\263`=\325@;>-@\273\274\035\225\317=1\350\036>\231D\203\275\252\355\021>\334\033=>W?\014\276\230\r!\275\321\336\337\275\2214\355\275\252C\000\276?\300\030>V\246X\274\316\326\202\276\014\320\351=j\332\364=\321r\230<J\341\206\274\310I~\275]\376\t=9:\223=\316$\256\274l\001\210=\r\315\200>\273\224\221\276.S\220\276\366Q\303\274\341\2173>v\251\317\274\276q\016=T\365L<+\222\335<\324k\007\276\247A\322\275H[\320=uL1=\315\016&\276\334\321\220\275K\\]=P\343a\276\333\330\246\275s\363\302\275\251\330\323<\261\036c\276\254l,=\345\260O=\351\312\216=\374\023/\275~N\267\274?\275\010>\031\372\325:\273\322\236\275\322\025#\276\300 \364\274\257\213\217>7\010\215\276~\374\371=E\177\021>X\250\n\276\247\372\352\274VZ\247=y*\000=\342\005\200\275\005aR=lw&=T\306\016;zgL\275\355\267M\275\267\017\010<e\370%\276\344>\334<cG\202\275!\247\014>\311`\"\276W\352\013<\332\372\216<\204\023\277<q\244\275\274\321\221\227\274Ls\206>U\231\253\275\2442\204\274\241\023&\275\021E\225\275\306Y{\276_\347\364\275\035\227\036>\037\216\207=\256n/\276\232\204\014\274\317ft\275\236\233c=P\033v\275F\222:\276\036\371\377=\313\235\352\274\356\231\372<&\377\324<w\375\250\274\316\325\003=\t6\347<\331N\233;f\367i\275Y\371\331\275\036\2736=L\247*\276\337\213\033>G\270\213\275\322x1\273\257a\233\275\007\025,=K\203\003=\245\277\320=\331\345\210\275\266\213;\276\264%\210=\321\225{\275?\310\304<\376\341\321\275\031\375\021\275\304\325\003<*\361\033\276\025\005|=\336\205;\275\032\0171\274\270+\013>\033Gc\273\177L\021=\254\\O\274\\&\363=:Z\304\275F0\001>f\035T\275L\216\036\275\363\002\362;\343\215\202\274c\177\200=u\341\"\275\237\264r\274\254\004\'\276\254n(\275M*\245=\202\277\200=S\025\252=\316\325S\274E\352\250\274q\310\225\275\264\317\027>\32634\275\210\314\341\273\346\025\367\274\0266\\\275l\247\000>\236\020\277=1gP\274i\263\022=cC\022\276\261C\216\273\254A\026\275\3559\364\275\276\253\222<\'\344r\275\262(\036=\352\262F\275?\037N\275\341\2073=\021\254M:\265\"\257\274\322Z#:\220\2519=\263\"\036=\343n\333\272\337\263\305\274\376\214\212\275\252\342\323=G\331\230<U\243O>\345\257\200=\326\334\203\275R\335\266=\31592=g\203\365<]\363\360\275m@#\276O\rm=\245\010\261<\324\303\225\273\001\251\334=\0272\003<\2059G=|q\225\2755~q=\230\277\235=\236\354d=\366*\371\275%\025\221\275\324\007\215\273\236<\240\275\022\274\013>j\002?>\'k\226\275\304\3102\271\341\235\357=\3732\371\275\202{\231=\273?\n>\254\030\207<\355x\215=\361\324>\274y\240\014=\367j\225\273\341\376t>\366$\373<\272\311\034\276\242K!>\026\021\251\274\273\021u\274\324\337\217>\351\300Z=[\302\210\275\275\231\334=\377\227Z\276f\273\325<\037\253\023>/\315\205\274\256m1\276\001\266\301\274\265\307!=E\306\261=\233-t\275Z\263M=Y\035\006\276\224\310\345<_A\225\274\220\277\352\275\0266\203\274\326\326\004\275\200\270)\276\035\304j\276\\5\r>\204\004@\275Y\217E\275\263\025\n>hn\361=\262\211!>\336\211\201=\031i\030>\272\244\001\276\373\336V=\"\262j\276\335\377\001=\262\241\"\275\033\312\272=\372r}\276U.\001>\240U\363\275=\006\304=\236\240i=I\360\037\276\2038|={\031\263=\324;\r>pr\010\276\t\017\203\273\"\001\220\275\220\323\">M*\r\274\216\204\004\2765\330\371\275\367\020\317=\034]}=\250J#\276\347\200\013<\217\322\324<\035\352\006\276\006K\242;c\324\302=\021^\263\275\272G\333\274\"\323\005<\331\3275;[[\326=\236e\341\274-1\370<(a\330\274\377m\r\274\t\2417=\037\231\336=\271\257\023>\277\210\210=;\214p\276\370g\n\275R_X=\271\021\231\274#b\203\275\251\254$>\361T\027\274I\215\230\274fq\331\275:\344\342\273e\227y\274\246\030\346=c<\201=\235\337\226=\204O\023\276\002\027\021=\232\320\\;3\235X;\301P\002<\321$9\275\246t\311\274{\006\274=\010\0233\276\303\0238>H\240\t\276\223\361\351\275\313\230k<,#\364\274&\375\260<\231S\030\274jY\320=\003\333\220\274\253\243\333\275\310\300\324=\"\304\253=\320w\242<\364\255\245\274\257F\036>\366\341\017\276=h\341;\373\003N\274\306x\315\275\031a\234\275|\376l>\200\240\014>\266?l=\356\341\371\274\270\023\236=y_\t<\346mw=\tO\"=\210\014\301;\277\366A\275\256\250\330=\363\240\321<\313\215c<r\323\226\275v\326s=\374e\000>\347\"\306\275\245\363\026<3\211+=\013V\325=e\352b<\371\262\353\275%\257\355<x\344\273\275\342\372\013\276\335\034\003\276\322\001\210=\240\036\024\276H\321\275\274-\342\024=\376:\353=\216\341\214\274\205`\004\275CB\223\274\211\225\205\275\260t3\273#)\235\275\302g\n=D=\203\275\204\260B=\277\331\235\275?R\355=\330u\'=\263\004\350=\345\371\346\275\352@\210\276z\272\314=\301\\\332\272g=}\276\212\2525\272\214\300\206=\276\306|\274\245\274\006\2766\252\037>^\373A=\000\350\003>\377\213\304=\\,\207=\306\250\254\275`\335\004\275\270D<\276\351\215H=\344W\211\275\377p2=\206\016A=\005\n;=\017\316\256=5h\325=\013\373\216=\307\264[\2766\335\'>\377\221\032\276\231kk=\351~&>\371>S=\024a\023\276\026\204B=\037\244\230\275\374\326\320=]U\376=J\326\265<\353\200\212\274j\265X<\325\332\234\275\346\177\243\275\213\322\030\275Z\267\254<\017\0137>\332\035\273=\036\270\256\274B\035\004>hE\220<\217\334\303<\025\024\277=5\356\220\275\365\000W\275\237\301\033\276[%F\275\020\323\320=\226\202\027=\335\243\371\274\350\341\010=\024 \375<\025a\332\275\034#\020=9\361\325\275\004\275\306\275J\233\352=\333\340\302\2758\207I=\312\357%=\n@\325=\322\341L\275\243\003\025\276\2710\020=\005\352O=\312\337\302\274J\362\252<Z\247\216\2742\213\241\275#v\250\274\225\343\246\275\005,]=\364\301s\276k\360\226\2753\254\003=\033E\370<\307\'\244\273\344\257\346;\316\231\017\275}A\271=\361\263\257=\204\202\227\274\036\253F\275\030_\321\273]5\326\275d\305*\276\244+\227=(lV=\224T%=\314\266\231:\035\2160:bX\246=\023\\\006=+\373\201;,D\210\270\201\251\263=\374D\351;\213\3240\274\010\0208\275\r\332\303=\036\302n=\211\301\034\276\031\357X\275\216<\034=\307\363\263<n2\237=\207\001\323=\277\034\352\275\031\024\234;o\302\244=\2122\361\275\305\304\235\276\210%\235\275"
      }
    }
  }
}
node {
  name: "mapping_block/w5/read"
  op: "Identity"
  input: "mapping_block/w5"
  attr {
    key: "T"
    value {
      type: DT_FLOAT
    }
  }
  attr {
    key: "_class"
    value {
      list {
        s: "loc:@mapping_block/w5"
      }
    }
  }
}
node {
  name: "mapping_block/b5"
  op: "Const"
  attr {
    key: "dtype"
    value {
      type: DT_FLOAT
    }
  }
  attr {
    key: "value"
    value {
      tensor {
        dtype: DT_FLOAT
        tensor_shape {
          dim {
            size: 12
          }
        }
        tensor_content: "\234T\002=\203\307\304\273\337M+\274\304\313|<\215|:\275j\343\376\274>/\245<\320|\201\2735\001\023\275\252U\335;\007d\301;*KG<"
      }
    }
  }
}
node {
  name: "mapping_block/b5/read"
  op: "Identity"
  input: "mapping_block/b5"
  attr {
    key: "T"
    value {
      type: DT_FLOAT
    }
  }
  attr {
    key: "_class"
    value {
      list {
        s: "loc:@mapping_block/b5"
      }
    }
  }
}
node {
  name: "mapping_block/alpha5"
  op: "Const"
  attr {
    key: "dtype"
    value {
      type: DT_FLOAT
    }
  }
  attr {
    key: "value"
    value {
      tensor {
        dtype: DT_FLOAT
        tensor_shape {
          dim {
            size: 12
          }
        }
        tensor_content: "*O\225=f\024L>q\024\005=\267\260@>W8\261>8\204\020?\230\217\221>4\277\202>In\230\2733\245q>\377\340Z>\366F\234>"
      }
    }
  }
}
node {
  name: "mapping_block/alpha5/read"
  op: "Identity"
  input: "mapping_block/alpha5"
  attr {
    key: "T"
    value {
      type: DT_FLOAT
    }
  }
  attr {
    key: "_class"
    value {
      list {
        s: "loc:@mapping_block/alpha5"
      }
    }
  }
}
node {
  name: "mapping_block/Relu_2"
  op: "Relu"
  input: "mapping_block/BiasAdd_1"
  attr {
    key: "T"
    value {
      type: DT_FLOAT
    }
  }
}
node {
  name: "mapping_block/Neg_1"
  op: "Neg"
  input: "mapping_block/BiasAdd_1"
  attr {
    key: "T"
    value {
      type: DT_FLOAT
    }
  }
}
node {
  name: "mapping_block/Relu_3"
  op: "Relu"
  input: "mapping_block/Neg_1"
  attr {
    key: "T"
    value {
      type: DT_FLOAT
    }
  }
}
node {
  name: "mapping_block/mul_1"
  op: "Mul"
  input: "mapping_block/alpha5/read"
  input: "mapping_block/Relu_3"
  attr {
    key: "T"
    value {
      type: DT_FLOAT
    }
  }
}
node {
  name: "mapping_block/sub_1"
  op: "Sub"
  input: "mapping_block/Relu_2"
  input: "mapping_block/mul_1"
  attr {
    key: "T"
    value {
      type: DT_FLOAT
    }
  }
}
node {
  name: "mapping_block/Conv2D_2"
  op: "Conv2D"
  input: "mapping_block/sub_1"
  input: "mapping_block/w5/read"
  attr {
    key: "T"
    value {
      type: DT_FLOAT
    }
  }
  attr {
    key: "data_format"
    value {
      s: "NHWC"
    }
  }
  attr {
    key: "dilations"
    value {
      list {
        i: 1
        i: 1
        i: 1
        i: 1
      }
    }
  }
  attr {
    key: "padding"
    value {
      s: "SAME"
    }
  }
  attr {
    key: "strides"
    value {
      list {
        i: 1
        i: 1
        i: 1
        i: 1
      }
    }
  }
  attr {
    key: "use_cudnn_on_gpu"
    value {
      b: true
    }
  }
}
node {
  name: "mapping_block/BiasAdd_2"
  op: "BiasAdd"
  input: "mapping_block/Conv2D_2"
  input: "mapping_block/b5/read"
  attr {
    key: "T"
    value {
      type: DT_FLOAT
    }
  }
  attr {
    key: "data_format"
    value {
      s: "NHWC"
    }
  }
}
node {
  name: "mapping_block/w6"
  op: "Const"
  attr {
    key: "dtype"
    value {
      type: DT_FLOAT
    }
  }
  attr {
    key: "value"
    value {
      tensor {
        dtype: DT_FLOAT
        tensor_shape {
          dim {
            size: 3
          }
          dim {
            size: 3
          }
          dim {
            size: 12
          }
          dim {
            size: 12
          }
        }
